{
  "version": "1.0",
  "truncation": null,
  "padding": null,
  "added_tokens": [
    {
      "id": 0,
      "content": "<|endoftext|>",
      "single_word": false,
      "lstrip": false,
      "rstrip": false,
      "normalized": false,
      "special": true
    }
  ],
  "normalizer": null,
  "pre_tokenizer": {
    "type": "ByteLevel",
    "add_prefix_space": false,
    "trim_offsets": true,
    "use_regex": true
  },
  "post_processor": {
    "type": "ByteLevel",
    "add_prefix_space": true,
    "trim_offsets": false,
    "use_regex": true
  },
  "decoder": {
    "type": "ByteLevel",
    "add_prefix_space": true,
    "trim_offsets": true,
    "use_regex": true
  },
  "model": {
    "type": "BPE",
    "dropout": null,
    "unk_token": null,
    "continuing_subword_prefix": null,
    "end_of_word_suffix": null,
    "fuse_unk": false,
    "byte_fallback": false,
    "ignore_merges": false,
    "vocab": {
      "<|endoftext|>": 0,
      "!": 1,
      "\"": 2,
      "#": 3,
      "$": 4,
      "%": 5,
      "&": 6,
      "'": 7,
      "(": 8,
      ")": 9,
      "*": 10,
      "+": 11,
      ",": 12,
      "-": 13,
      ".": 14,
      "/": 15,
      "0": 16,
      "1": 17,
      "2": 18,
      "3": 19,
      "4": 20,
      "5": 21,
      "6": 22,
      "7": 23,
      "8": 24,
      "9": 25,
      ":": 26,
      ";": 27,
      "<": 28,
      "=": 29,
      ">": 30,
      "?": 31,
      "@": 32,
      "A": 33,
      "B": 34,
      "C": 35,
      "D": 36,
      "E": 37,
      "F": 38,
      "G": 39,
      "H": 40,
      "I": 41,
      "J": 42,
      "K": 43,
      "L": 44,
      "M": 45,
      "N": 46,
      "O": 47,
      "P": 48,
      "Q": 49,
      "R": 50,
      "S": 51,
      "T": 52,
      "U": 53,
      "V": 54,
      "W": 55,
      "X": 56,
      "Y": 57,
      "Z": 58,
      "[": 59,
      "\\": 60,
      "]": 61,
      "^": 62,
      "_": 63,
      "`": 64,
      "a": 65,
      "b": 66,
      "c": 67,
      "d": 68,
      "e": 69,
      "f": 70,
      "g": 71,
      "h": 72,
      "i": 73,
      "j": 74,
      "k": 75,
      "l": 76,
      "m": 77,
      "n": 78,
      "o": 79,
      "p": 80,
      "q": 81,
      "r": 82,
      "s": 83,
      "t": 84,
      "u": 85,
      "v": 86,
      "w": 87,
      "x": 88,
      "y": 89,
      "z": 90,
      "{": 91,
      "|": 92,
      "}": 93,
      "~": 94,
      "¡": 95,
      "¢": 96,
      "£": 97,
      "¤": 98,
      "¥": 99,
      "¦": 100,
      "§": 101,
      "¨": 102,
      "©": 103,
      "ª": 104,
      "«": 105,
      "¬": 106,
      "®": 107,
      "¯": 108,
      "°": 109,
      "±": 110,
      "²": 111,
      "³": 112,
      "´": 113,
      "µ": 114,
      "¶": 115,
      "·": 116,
      "¸": 117,
      "¹": 118,
      "º": 119,
      "»": 120,
      "¼": 121,
      "½": 122,
      "¾": 123,
      "¿": 124,
      "À": 125,
      "Á": 126,
      "Â": 127,
      "Ã": 128,
      "Ä": 129,
      "Å": 130,
      "Æ": 131,
      "Ç": 132,
      "È": 133,
      "É": 134,
      "Ê": 135,
      "Ë": 136,
      "Ì": 137,
      "Í": 138,
      "Î": 139,
      "Ï": 140,
      "Ð": 141,
      "Ñ": 142,
      "Ò": 143,
      "Ó": 144,
      "Ô": 145,
      "Õ": 146,
      "Ö": 147,
      "×": 148,
      "Ø": 149,
      "Ù": 150,
      "Ú": 151,
      "Û": 152,
      "Ü": 153,
      "Ý": 154,
      "Þ": 155,
      "ß": 156,
      "à": 157,
      "á": 158,
      "â": 159,
      "ã": 160,
      "ä": 161,
      "å": 162,
      "æ": 163,
      "ç": 164,
      "è": 165,
      "é": 166,
      "ê": 167,
      "ë": 168,
      "ì": 169,
      "í": 170,
      "î": 171,
      "ï": 172,
      "ð": 173,
      "ñ": 174,
      "ò": 175,
      "ó": 176,
      "ô": 177,
      "õ": 178,
      "ö": 179,
      "÷": 180,
      "ø": 181,
      "ù": 182,
      "ú": 183,
      "û": 184,
      "ü": 185,
      "ý": 186,
      "þ": 187,
      "ÿ": 188,
      "Ā": 189,
      "ā": 190,
      "Ă": 191,
      "ă": 192,
      "Ą": 193,
      "ą": 194,
      "Ć": 195,
      "ć": 196,
      "Ĉ": 197,
      "ĉ": 198,
      "Ċ": 199,
      "ċ": 200,
      "Č": 201,
      "č": 202,
      "Ď": 203,
      "ď": 204,
      "Đ": 205,
      "đ": 206,
      "Ē": 207,
      "ē": 208,
      "Ĕ": 209,
      "ĕ": 210,
      "Ė": 211,
      "ė": 212,
      "Ę": 213,
      "ę": 214,
      "Ě": 215,
      "ě": 216,
      "Ĝ": 217,
      "ĝ": 218,
      "Ğ": 219,
      "ğ": 220,
      "Ġ": 221,
      "ġ": 222,
      "Ģ": 223,
      "ģ": 224,
      "Ĥ": 225,
      "ĥ": 226,
      "Ħ": 227,
      "ħ": 228,
      "Ĩ": 229,
      "ĩ": 230,
      "Ī": 231,
      "ī": 232,
      "Ĭ": 233,
      "ĭ": 234,
      "Į": 235,
      "į": 236,
      "İ": 237,
      "ı": 238,
      "Ĳ": 239,
      "ĳ": 240,
      "Ĵ": 241,
      "ĵ": 242,
      "Ķ": 243,
      "ķ": 244,
      "ĸ": 245,
      "Ĺ": 246,
      "ĺ": 247,
      "Ļ": 248,
      "ļ": 249,
      "Ľ": 250,
      "ľ": 251,
      "Ŀ": 252,
      "ŀ": 253,
      "Ł": 254,
      "ł": 255,
      "Ń": 256,
      "Ġt": 257,
      "Ġa": 258,
      "in": 259,
      "he": 260,
      "re": 261,
      "on": 262,
      "er": 263,
      "at": 264,
      "Ġc": 265,
      "Ġthe": 266,
      "Ġs": 267,
      "en": 268,
      "Ġo": 269,
      "es": 270,
      "nd": 271,
      "ing": 272,
      "al": 273,
      "Ġp": 274,
      "it": 275,
      "is": 276,
      "or": 277,
      "an": 278,
      "Ġand": 279,
      "Ġw": 280,
      "Ġf": 281,
      "Ġin": 282,
      "Ġb": 283,
      "Ġm": 284,
      "ion": 285,
      "ic": 286,
      "Ġof": 287,
      "Ġto": 288,
      "ro": 289,
      "ed": 290,
      "Ġd": 291,
      "ar": 292,
      "le": 293,
      "ou": 294,
      "ent": 295,
      "ct": 296,
      "Ġe": 297,
      "st": 298,
      "Ġre": 299,
      "ve": 300,
      "om": 301,
      "il": 302,
      "Ġh": 303,
      "Ġth": 304,
      "as": 305,
      "Ġis": 306,
      "ation": 307,
      "Ġl": 308,
      "et": 309,
      "ly": 310,
      "Ġn": 311,
      "im": 312,
      "us": 313,
      "ce": 314,
      "ol": 315,
      "id": 316,
      "ur": 317,
      "Ġpro": 318,
      "ĠT": 319,
      "ch": 320,
      "Ġg": 321,
      "ra": 322,
      "ig": 323,
      "Ġfor": 324,
      "Ġbe": 325,
      "ot": 326,
      "ut": 327,
      "Ġy": 328,
      "ow": 329,
      "Ġst": 330,
      "Ġcon": 331,
      "ul": 332,
      "ir": 333,
      "Ġare": 334,
      "Ġyou": 335,
      "ment": 336,
      "Ġcan": 337,
      "se": 338,
      "ess": 339,
      "Ġthat": 340,
      "ver": 341,
      "if": 342,
      "Ġas": 343,
      "ith": 344,
      "Ġor": 345,
      "Ġon": 346,
      "ab": 347,
      "el": 348,
      "ay": 349,
      "ect": 350,
      "Ġwith": 351,
      "ure": 352,
      "Ġal": 353,
      "Ġhe": 354,
      "od": 355,
      "ies": 356,
      "ers": 357,
      "ity": 358,
      "Ġan": 359,
      "Ġcom": 360,
      "ge": 361,
      "ial": 362,
      "Ġsu": 363,
      "ĠI": 364,
      "Ġen": 365,
      "Ġit": 366,
      "ive": 367,
      "ate": 368,
      "ĠA": 369,
      "am": 370,
      "Ġex": 371,
      "ĠThe": 372,
      "ain": 373,
      "Ġde": 374,
      "qu": 375,
      "un": 376,
      "Ġv": 377,
      "th": 378,
      "Ġus": 379,
      "ant": 380,
      "pp": 381,
      "ter": 382,
      "her": 383,
      "ad": 384,
      "lo": 385,
      "ĠS": 386,
      "iv": 387,
      "du": 388,
      "Ġwh": 389,
      "ke": 390,
      "ĠC": 391,
      "Ġim": 392,
      "ort": 393,
      "ist": 394,
      "ore": 395,
      "ill": 396,
      "um": 397,
      "ac": 398,
      "ical": 399,
      "Ġch": 400,
      "Ġha": 401,
      "est": 402,
      "igh": 403,
      "em": 404,
      "Ġle": 405,
      "os": 406,
      "Ġyour": 407,
      "res": 408,
      "ff": 409,
      "act": 410,
      "ud": 411,
      "pt": 412,
      "ions": 413,
      "per": 414,
      "end": 415,
      "iz": 416,
      "Ġne": 417,
      "Ġimp": 418,
      "ren": 419,
      "rom": 420,
      "Ġr": 421,
      "pe": 422,
      "Ġse": 423,
      "te": 424,
      "Ġpl": 425,
      "oc": 426,
      "og": 427,
      "Ġtheir": 428,
      "ib": 429,
      "Ġad": 430,
      "Ġcomp": 431,
      "and": 432,
      "ĠP": 433,
      "ations": 434,
      "ance": 435,
      "Ġwe": 436,
      "Ġby": 437,
      "Ġinc": 438,
      "age": 439,
      "ru": 440,
      "art": 441,
      "able": 442,
      "Ġma": 443,
      "Ġsh": 444,
      "cess": 445,
      "all": 446,
      "Ġfrom": 447,
      "ide": 448,
      "ĠB": 449,
      "Ġhave": 450,
      "ld": 451,
      "Ġcont": 452,
      "Ġte": 453,
      "ĠM": 454,
      "ight": 455,
      "und": 456,
      "ine": 457,
      "orm": 458,
      "ther": 459,
      "reat": 460,
      "ult": 461,
      "ost": 462,
      "so": 463,
      "Ġres": 464,
      "ip": 465,
      "ign": 466,
      "ĠTh": 467,
      "Ġwor": 468,
      "ome": 469,
      "Ġca": 470,
      "ĠW": 471,
      "Ġat": 472,
      "ater": 473,
      "op": 474,
      "king": 475,
      "Ġnot": 476,
      "ous": 477,
      "ĠE": 478,
      "Ġalso": 479,
      "ag": 480,
      "Ġman": 481,
      "Ġab": 482,
      "our": 483,
      "Ġac": 484,
      "The": 485,
      "Ġdis": 486,
      "ard": 487,
      "ell": 488,
      "ĠD": 489,
      "ĠH": 490,
      "ans": 491,
      "ich": 492,
      "Ġthis": 493,
      "ual": 494,
      "Ġsy": 495,
      "red": 496,
      "Ġint": 497,
      "ĠF": 498,
      "Ġwill": 499,
      "ast": 500,
      "hen": 501,
      "ition": 502,
      "ĠThis": 503,
      "ks": 504,
      "gh": 505,
      "alth": 506,
      "xt": 507,
      "Ġmore": 508,
      "low": 509,
      "ction": 510,
      "Ġapp": 511,
      "ents": 512,
      "of": 513,
      "Ġhel": 514,
      "form": 515,
      "ces": 516,
      "Ġhelp": 517,
      "'s": 518,
      "ated": 519,
      "ĠR": 520,
      "Ġeff": 521,
      "ress": 522,
      "Ġwhich": 523,
      "Ġthey": 524,
      "ust": 525,
      "Ġro": 526,
      "ors": 527,
      "ĠIn": 528,
      "out": 529,
      "ific": 530,
      "ence": 531,
      "fe": 532,
      "Ġpre": 533,
      "Ġhealth": 534,
      "Ġmay": 535,
      "Ġother": 536,
      "ood": 537,
      "ould": 538,
      "Ġsuch": 539,
      "ep": 540,
      "up": 541,
      "ri": 542,
      "ility": 543,
      "Ġk": 544,
      "Ġhas": 545,
      "Ġsp": 546,
      "ments": 547,
      "ry": 548,
      "Ġcomm": 549,
      "stem": 550,
      "ild": 551,
      "olog": 552,
      "Ġprov": 553,
      "ens": 554,
      "ities": 555,
      "ong": 556,
      "ĠIt": 557,
      "Ġme": 558,
      "Ġtra": 559,
      "chn": 560,
      "Ġun": 561,
      "ary": 562,
      "text": 563,
      "ase": 564,
      "Ġcons": 565,
      "ach": 566,
      "ind": 567,
      "cial": 568,
      "Ġdi": 569,
      "les": 570,
      "Ġ(": 571,
      "Ġincl": 572,
      "Ġprodu": 573,
      "rent": 574,
      "lic": 575,
      "ace": 576,
      "ric": 577,
      "Ġspe": 578,
      "ĠL": 579,
      "ile": 580,
      "Ġpart": 581,
      "av": 582,
      "ating": 583,
      "Ġper": 584,
      "Ġthese": 585,
      "ĠO": 586,
      "velo": 587,
      "ime": 588,
      "Ġar": 589,
      "<|": 590,
      "|>": 591,
      "endof": 592,
      "endoftext": 593,
      "Ġsystem": 594,
      "Ġneed": 595,
      "Ġinclud": 596,
      "Ġuse": 597,
      "Ġexp": 598,
      "Ġem": 599,
      "ential": 600,
      "velop": 601,
      "ari": 602,
      "Ġtr": 603,
      "Ġused": 604,
      "uring": 605,
      "Ġthem": 606,
      "Ġqu": 607,
      "Ġdif": 608,
      "Ġtechn": 609,
      "ue": 610,
      "dition": 611,
      "lect": 612,
      "nt": 613,
      "Ġsc": 614,
      "ie": 615,
      "Ġund": 616,
      "one": 617,
      "Ġdo": 618,
      "Ġev": 619,
      "erg": 620,
      "Ġfe": 621,
      "Ġj": 622,
      "ular": 623,
      "arn": 624,
      "ugh": 625,
      "are": 626,
      "ms": 627,
      "ice": 628,
      "ass": 629,
      "Ġinto": 630,
      "Ġdevelop": 631,
      "ĠG": 632,
      "ures": 633,
      "Ġprocess": 634,
      "Ġind": 635,
      "Ġover": 636,
      "ail": 637,
      "Ġgro": 638,
      "Ġout": 639,
      "ike": 640,
      "ract": 641,
      "Ġrec": 642,
      "ang": 643,
      "Ġbut": 644,
      "ack": 645,
      "ys": 646,
      "Ġdes": 647,
      "Ġcl": 648,
      "use": 649,
      "ĠN": 650,
      "Ġits": 651,
      "rough": 652,
      "ient": 653,
      "ata": 654,
      "ose": 655,
      "very": 656,
      "Ġunder": 657,
      "Ġall": 658,
      "Ġimport": 659,
      "erv": 660,
      "iron": 661,
      "ced": 662,
      "tain": 663,
      "Ġact": 664,
      "now": 665,
      "ire": 666,
      "Ġstud": 667,
      "Ġcol": 668,
      "Ġinter": 669,
      "ings": 670,
      "ĠU": 671,
      "ia": 672,
      "Ġeffect": 673,
      "ten": 674,
      "Ġrel": 675,
      "its": 676,
      "Ġso": 677,
      "Ġvari": 678,
      "Ġpe": 679,
      "Ġinv": 680,
      "ons": 681,
      "ally": 682,
      "Ġsupp": 683,
      "Ġtime": 684,
      "Ġbet": 685,
      "Ġta": 686,
      "Ġredu": 687,
      "Ġco": 688,
      "viron": 689,
      "ices": 690,
      "Ġreg": 691,
      "ful": 692,
      "ory": 693,
      "Ġty": 694,
      "Ġtrans": 695,
      "ount": 696,
      "ear": 697,
      "Ġbec": 698,
      "cur": 699,
      "Ġsign": 700,
      "Ġwhen": 701,
      "cy": 702,
      "ics": 703,
      "Ġwater": 704,
      "Ġmet": 705,
      "ne": 706,
      "Ġdiffe": 707,
      "rit": 708,
      "ety": 709,
      "Ġabout": 710,
      "Ġinf": 711,
      "ject": 712,
      "int": 713,
      "ene": 714,
      "Ġens": 715,
      "Ġsome": 716,
      "ord": 717,
      "als": 718,
      "Ġwork": 719,
      "ative": 720,
      "Ġsa": 721,
      "ise": 722,
      "Ġlike": 723,
      "Ġdata": 724,
      "oth": 725,
      "Ġenviron": 726,
      "ound": 727,
      "vent": 728,
      "Ġhigh": 729,
      "Ġone": 730,
      "stand": 731,
      "Ġhow": 732,
      "Ġoff": 733,
      "Ġthrough": 734,
      "ays": 735,
      "Ġass": 736,
      "ap": 737,
      "Ġmed": 738,
      "Ġour": 739,
      "rap": 740,
      "Ġrequ": 741,
      "Ġlearn": 742,
      "ower": 743,
      "Ġph": 744,
      "Ġwell": 745,
      "Ġpr": 746,
      "Ġknow": 747,
      "ates": 748,
      "Ġexper": 749,
      "Ġup": 750,
      "Ġmain": 751,
      "Ġwhe": 752,
      "Ġimportant": 753,
      "ural": 754,
      "ree": 755,
      "ople": 756,
      "Ġany": 757,
      "vel": 758,
      "ub": 759,
      "ology": 760,
      "Ġimpro": 761,
      "Ġtreat": 762,
      "Ġwas": 763,
      "In": 764,
      "ck": 765,
      "ible": 766,
      "Ġpat": 767,
      "Ġsur": 768,
      "ize": 769,
      "Ġshould": 770,
      "we": 771,
      "Ġsk": 772,
      "ivid": 773,
      "Ġgen": 774,
      "ov": 775,
      "Ġmake": 776,
      "ting": 777,
      "Ġmost": 778,
      "ite": 779,
      "Ġrep": 780,
      "Ġthere": 781,
      "Ġpos": 782,
      "Ġag": 783,
      "Ġrem": 784,
      "aterial": 785,
      "Ġgo": 786,
      "Ġsm": 787,
      "Ġdifferent": 788,
      "Ġenvironment": 789,
      "ish": 790,
      "ased": 791,
      "iqu": 792,
      "ange": 793,
      "vers": 794,
      "Ġpeople": 795,
      "Ġdesign": 796,
      "ality": 797,
      "rib": 798,
      "amp": 799,
      "Ġwho": 800,
      "Ġdec": 801,
      "Ġdet": 802,
      "Ġincre": 803,
      "ĠThese": 804,
      "ividual": 805,
      "Ġsol": 806,
      "cing": 807,
      "Ġmaterial": 808,
      "Ġprovid": 809,
      "ants": 810,
      "Ġspec": 811,
      "ability": 812,
      "Ġke": 813,
      "Ġlead": 814,
      "ruct": 815,
      "ber": 816,
      "ience": 817,
      "Ġra": 818,
      "Ġblo": 819,
      "Ġinform": 820,
      "Ġif": 821,
      "uc": 822,
      "gan": 823,
      "Ġlif": 824,
      "ble": 825,
      "rol": 826,
      "Ġmod": 827,
      "hes": 828,
      "Ġchild": 829,
      "Ġadv": 830,
      "Ġindividual": 831,
      "Ġmany": 832,
      "oo": 833,
      "Ġ1": 834,
      "ized": 835,
      "Ġbu": 836,
      "Ġcommun": 837,
      "ines": 838,
      "ove": 839,
      "Ġnew": 840,
      "ution": 841,
      "con": 842,
      "ergy": 843,
      "enef": 844,
      "Ġinst": 845,
      "ak": 846,
      "ien": 847,
      "Ġam": 848,
      "Ġris": 849,
      "ĠThey": 850,
      "Ġpot": 851,
      "Ġallow": 852,
      "ues": 853,
      "ĠSt": 854,
      "Ġpers": 855,
      "ever": 856,
      "Ġstr": 857,
      "Ġresp": 858,
      "Ġbeen": 859,
      "ets": 860,
      "Ġess": 861,
      "ases": 862,
      "ection": 863,
      "Ġthan": 864,
      "Ġprovide": 865,
      "Ġart": 866,
      "Ġoften": 867,
      "Ġproduct": 868,
      "Ġins": 869,
      "Ġunderstand": 870,
      "Ġgrow": 871,
      "ness": 872,
      "ark": 873,
      "Ġatt": 874,
      "ough": 875,
      "arm": 876,
      "Ġprot": 877,
      "ining": 878,
      "Ġav": 879,
      "Ġbod": 880,
      "old": 881,
      "Ġfood": 882,
      "ling": 883,
      "Ġsupport": 884,
      "ĠY": 885,
      "Ġwhere": 886,
      "Ġpract": 887,
      "ween": 888,
      "Ġadd": 889,
      "ame": 890,
      "Ġob": 891,
      "Ġindu": 892,
      "tern": 893,
      "Ġform": 894,
      "fore": 895,
      "Ġelect": 896,
      "Ġbenef": 897,
      "ational": 898,
      "Ġsignific": 899,
      "Ġbetween": 900,
      "Ġpo": 901,
      "Ġgener": 902,
      "Ġed": 903,
      "Ġtyp": 904,
      "Ġpres": 905,
      "Ġusing": 906,
      "wn": 907,
      "ts": 908,
      "Ġopt": 909,
      "Ġvarious": 910,
      "Ġfun": 911,
      "ives": 912,
      "Ġonly": 913,
      "Ġcar": 914,
      "rop": 915,
      "Ġche": 916,
      "Ġfl": 917,
      "ves": 918,
      "ages": 919,
      "ering": 920,
      "Ġcare": 921,
      "Ġsoc": 922,
      "Ġenergy": 923,
      "Ġprevent": 924,
      "Ġnat": 925,
      "led": 926,
      "Ġdep": 927,
      "ident": 928,
      "ital": 929,
      "eng": 930,
      "ically": 931,
      "Ġacc": 932,
      "round": 933,
      "Ġessential": 934,
      "Ġcomple": 935,
      "Ġsub": 936,
      "Ġcre": 937,
      "Ġproper": 938,
      "Ġindust": 939,
      "gra": 940,
      "Ġway": 941,
      "ious": 942,
      "Ġcontrol": 943,
      "ĠBy": 944,
      "Ġresult": 945,
      "Ġval": 946,
      "Ġproble": 947,
      "Ġconc": 948,
      "Ġlevel": 949,
      "Ġpotential": 950,
      "Ġcle": 951,
      "wor": 952,
      "Ġsystems": 953,
      "Ġinformation": 954,
      "ick": 955,
      "Ġext": 956,
      "Ġpartic": 957,
      "iness": 958,
      "Ġimpact": 959,
      "ving": 960,
      "Ġ2": 961,
      "Ġincluding": 962,
      "Ġcommon": 963,
      "ily": 964,
      "Ġorgan": 965,
      "Ġdisc": 966,
      "ffect": 967,
      "Ġmanage": 968,
      "ional": 969,
      "erm": 970,
      "ĠV": 971,
      "Ġfact": 972,
      "Ġbody": 973,
      "Ġaut": 974,
      "iss": 975,
      "Ġeffective": 976,
      "pl": 977,
      "Ġlong": 978,
      "Ġduring": 979,
      "Ġeffic": 980,
      "get": 981,
      "ron": 982,
      "itions": 983,
      "Ġcreat": 984,
      "Ġsignificant": 985,
      "Ġactiv": 986,
      "hod": 987,
      "own": 988,
      "Ġinte": 989,
      "Ġprom": 990,
      "Ġserv": 991,
      "Ġensure": 992,
      "Ġprof": 993,
      "Ġwhile": 994,
      "Ġtechnology": 995,
      "eld": 996,
      "Ġperform": 997,
      "ss": 998,
      "Ġeng": 999,
      "Ġdise": 1000,
      "ards": 1001,
      "arch": 1002,
      "Ġhum": 1003,
      "itive": 1004,
      "Ġsim": 1005,
      "Ġperson": 1006,
      "Wh": 1007,
      "ern": 1008,
      "ins": 1009,
      "Ġloc": 1010,
      "ĠCh": 1011,
      "Ġimprove": 1012,
      "Ġapplic": 1013,
      "Ġnum": 1014,
      "oms": 1015,
      "Ġinvol": 1016,
      "ources": 1017,
      "Ġdevelopment": 1018,
      "ade": 1019,
      "Ġrese": 1020,
      "Ġtest": 1021,
      "Ġtw": 1022,
      "ental": 1023,
      "ĠHow": 1024,
      "Ġmin": 1025,
      "Ġpower": 1026,
      "ob": 1027,
      "Ġlife": 1028,
      "Ġworld": 1029,
      "Ġinclude": 1030,
      "ll": 1031,
      "Ġplay": 1032,
      "ills": 1033,
      "cept": 1034,
      "Ġwere": 1035,
      "ols": 1036,
      "Ġmethod": 1037,
      "ify": 1038,
      "Ġfin": 1039,
      "omm": 1040,
      "ning": 1041,
      "Ġhand": 1042,
      "Ġlearning": 1043,
      "ause": 1044,
      "Ġpol": 1045,
      "Ġvis": 1046,
      "Ġdist": 1047,
      "ually": 1048,
      "ond": 1049,
      "Ġsym": 1050,
      "Ġpain": 1051,
      "Ġtreatment": 1052,
      "ved": 1053,
      "fter": 1054,
      "Ġeven": 1055,
      "ribut": 1056,
      "Ġget": 1057,
      "Ġoper": 1058,
      "Ġyear": 1059,
      "Ġanal": 1060,
      "Ġmon": 1061,
      "hed": 1062,
      "Ġequ": 1063,
      "Ġcru": 1064,
      "irst": 1065,
      "oid": 1066,
      "Ġlar": 1067,
      "Ġemp": 1068,
      "Ġno": 1069,
      "Ġchall": 1070,
      "Ġbus": 1071,
      "Ġeduc": 1072,
      "Ġstudents": 1073,
      "ĠK": 1074,
      "Ġrisk": 1075,
      "Ġindividuals": 1076,
      "Ġreduce": 1077,
      "ĠRe": 1078,
      "Ġwhat": 1079,
      "Ġeach": 1080,
      "Ġmaking": 1081,
      "sel": 1082,
      "Ġrole": 1083,
      "Ġve": 1084,
      "ĠIf": 1085,
      "ization": 1086,
      "Ġmaterials": 1087,
      "Ġent": 1088,
      "pect": 1089,
      "Ġenh": 1090,
      "Ġcaus": 1091,
      "Ġcrucial": 1092,
      "ied": 1093,
      "Ġaccess": 1094,
      "ists": 1095,
      "hip": 1096,
      "Ġbr": 1097,
      "Ġident": 1098,
      "Ġcreate": 1099,
      "Ġair": 1100,
      "ĠPro": 1101,
      "ĠHe": 1102,
      "Ġdr": 1103,
      "Ġbuild": 1104,
      "ances": 1105,
      "Ġphys": 1106,
      "Ġgood": 1107,
      "Ġfol": 1108,
      "Ġcause": 1109,
      "Ġref": 1110,
      "ditions": 1111,
      "Ġiss": 1112,
      "acter": 1113,
      "Ġtake": 1114,
      "uch": 1115,
      "Ġboth": 1116,
      "Ġspecific": 1117,
      "Ġeas": 1118,
      "Ġlight": 1119,
      "Ġset": 1120,
      "Ġcur": 1121,
      "Ġcost": 1122,
      "Ġquality": 1123,
      "ĠAs": 1124,
      "Ġcor": 1125,
      "fety": 1126,
      "Ġear": 1127,
      "Ġsmall": 1128,
      "Ġtwo": 1129,
      "ider": 1130,
      "ateg": 1131,
      "Ġmaintain": 1132,
      "Ġgu": 1133,
      "Ġsee": 1134,
      "rect": 1135,
      "ĠEn": 1136,
      "Ġchildren": 1137,
      "other": 1138,
      "Ġdev": 1139,
      "Ġconst": 1140,
      "Ġmach": 1141,
      "Ġcontin": 1142,
      "Ġfi": 1143,
      "Ġrequire": 1144,
      "ĠHowever": 1145,
      "Ġblood": 1146,
      "Ġbusiness": 1147,
      "ĠJ": 1148,
      "ict": 1149,
      "Ġmus": 1150,
      "ature": 1151,
      "ism": 1152,
      "ditional": 1153,
      "ication": 1154,
      "Ġposs": 1155,
      "aging": 1156,
      "ĠFor": 1157,
      "eth": 1158,
      "Ġcho": 1159,
      "mp": 1160,
      "Ġsust": 1161,
      "lement": 1162,
      "Ġaffect": 1163,
      "urn": 1164,
      "Ġexamp": 1165,
      "Ġsustain": 1166,
      "els": 1167,
      "ination": 1168,
      "ook": 1169,
      "ration": 1170,
      "ptoms": 1171,
      "fact": 1172,
      "Ġevery": 1173,
      "Ġconditions": 1174,
      "rain": 1175,
      "Ġmust": 1176,
      "ĠAd": 1177,
      "Ġoc": 1178,
      "Ġtem": 1179,
      "ands": 1180,
      "Ġfind": 1181,
      "ware": 1182,
      "Ġback": 1183,
      "co": 1184,
      "Ġbeh": 1185,
      "ries": 1186,
      "Ġvery": 1187,
      "Ġstruct": 1188,
      "Ġpur": 1189,
      "hy": 1190,
      "Ġchalleng": 1191,
      "Ġbeing": 1192,
      "Ġhy": 1193,
      "ert": 1194,
      "Ġresearch": 1195,
      "Ġfollow": 1196,
      "line": 1197,
      "ger": 1198,
      "Ġbenefits": 1199,
      "izing": 1200,
      "Ġfound": 1201,
      "Ġmanagement": 1202,
      "Ġappro": 1203,
      "cho": 1204,
      "Ġpa": 1205,
      "Ġprogra": 1206,
      "Ġcult": 1207,
      "Ġmeas": 1208,
      "Ġown": 1209,
      "Ġconn": 1210,
      "Ġplan": 1211,
      "Ġprotect": 1212,
      "Ġproject": 1213,
      "Ġchar": 1214,
      "Ġfirst": 1215,
      "Ġneeds": 1216,
      "Ġchang": 1217,
      "oring": 1218,
      "iving": 1219,
      "ilities": 1220,
      "Ġpop": 1221,
      "Ġbl": 1222,
      "Ġdam": 1223,
      "Ġbre": 1224,
      "Ġgreat": 1225,
      "Ġcould": 1226,
      "Ġthen": 1227,
      "ulation": 1228,
      "aw": 1229,
      "Ġrequi": 1230,
      "Ġright": 1231,
      "Ġser": 1232,
      "Ġbecause": 1233,
      "ink": 1234,
      "ertain": 1235,
      "Ġsafety": 1236,
      "Ġareas": 1237,
      "uture": 1238,
      "kes": 1239,
      "ision": 1240,
      "gg": 1241,
      "Ġpromot": 1242,
      "Ġinfl": 1243,
      "Ġconsum": 1244,
      "omp": 1245,
      "Ġskills": 1246,
      "Ġprofess": 1247,
      "der": 1248,
      "Ġcell": 1249,
      "Ġthose": 1250,
      "Ġtechniqu": 1251,
      "me": 1252,
      "ian": 1253,
      "any": 1254,
      "Ġsever": 1255,
      "Ġsocial": 1256,
      "Ġmade": 1257,
      "ĠAI": 1258,
      "ake": 1259,
      "ocus": 1260,
      "Ġfunction": 1261,
      "Ġnatural": 1262,
      "oss": 1263,
      "Ġunderstanding": 1264,
      "ption": 1265,
      "Ġdig": 1266,
      "Ġcontribut": 1267,
      "ium": 1268,
      "Ġtypes": 1269,
      "Ġhelps": 1270,
      "Ġbi": 1271,
      "Ġtype": 1272,
      "ĠWh": 1273,
      "Ġcent": 1274,
      "ĠCon": 1275,
      "aste": 1276,
      "Ġhuman": 1277,
      "Ġbest": 1278,
      "Ġbefore": 1279,
      "Ġbecome": 1280,
      "Ġgra": 1281,
      "Ġend": 1282,
      "Ġsymptoms": 1283,
      "Ġimm": 1284,
      "Ġlot": 1285,
      "Ġproduction": 1286,
      "ĠYou": 1287,
      "Ġbetter": 1288,
      "Ġexperience": 1289,
      "Ġkeep": 1290,
      "Ġproducts": 1291,
      "ior": 1292,
      "loy": 1293,
      "work": 1294,
      "Ġenc": 1295,
      "ited": 1296,
      "Th": 1297,
      "Ġafter": 1298,
      "Ġdef": 1299,
      "iency": 1300,
      "Ġwithin": 1301,
      "Ġpress": 1302,
      "Ġfac": 1303,
      "iew": 1304,
      "ients": 1305,
      "Ġless": 1306,
      "Ġcap": 1307,
      "Ġwithout": 1308,
      "Ġread": 1309,
      "ĠAn": 1310,
      "Ġfam": 1311,
      "Ġplant": 1312,
      "Ġdel": 1313,
      "imes": 1314,
      "ufact": 1315,
      "Ġmark": 1316,
      "Ġdisease": 1317,
      "Ġknown": 1318,
      "anced": 1319,
      "Ġsens": 1320,
      "ather": 1321,
      "reen": 1322,
      "air": 1323,
      "iven": 1324,
      "Ġdem": 1325,
      "Ġpub": 1326,
      "Ġfocus": 1327,
      "Ġreal": 1328,
      "Ġkey": 1329,
      "Ġapplications": 1330,
      "Ġlarge": 1331,
      "Ġbo": 1332,
      "Ġclean": 1333,
      "conom": 1334,
      "Ġflow": 1335,
      "Ġnut": 1336,
      "read": 1337,
      "curity": 1338,
      "ense": 1339,
      "Ġwould": 1340,
      "Ġmat": 1341,
      "Ġproblems": 1342,
      "ogn": 1343,
      "Ġhome": 1344,
      "Ġfuture": 1345,
      "less": 1346,
      "Ġdue": 1347,
      "Ġjust": 1348,
      "pport": 1349,
      "ral": 1350,
      "Ġseveral": 1351,
      "care": 1352,
      "ological": 1353,
      "Ġnecess": 1354,
      "ĠWe": 1355,
      "Ġaround": 1356,
      "Ġcompon": 1357,
      "Ġstrateg": 1358,
      "ier": 1359,
      "Ġhist": 1360,
      "Ġexample": 1361,
      "Ġant": 1362,
      "Ġstart": 1363,
      "ource": 1364,
      "urther": 1365,
      "Ġphysical": 1366,
      "be": 1367,
      "Ġdown": 1368,
      "ĠThere": 1369,
      "Ġconf": 1370,
      "Ġyears": 1371,
      "Ġcount": 1372,
      "ivity": 1373,
      "oci": 1374,
      "Ġstand": 1375,
      "Ġissues": 1376,
      "asing": 1377,
      "icle": 1378,
      "Ġinvest": 1379,
      "Ġgrowth": 1380,
      "Ġlevels": 1381,
      "Ġmedical": 1382,
      "imate": 1383,
      "yc": 1384,
      "erc": 1385,
      "Ġrange": 1386,
      "ty": 1387,
      "Ġavail": 1388,
      "00": 1389,
      "ĠUn": 1390,
      "omes": 1391,
      "Ġmanufact": 1392,
      "Ġdoes": 1393,
      "abor": 1394,
      "por": 1395,
      "ccess": 1396,
      "Ġmult": 1397,
      "Ġparticular": 1398,
      "What": 1399,
      "ency": 1400,
      "Ġsafe": 1401,
      "ids": 1402,
      "Ġexplo": 1403,
      "Ġenvironmental": 1404,
      "mer": 1405,
      "Ġclass": 1406,
      "Ġresources": 1407,
      "Ġcontain": 1408,
      "Ġactivities": 1409,
      "Ġfactors": 1410,
      "Ġhealthy": 1411,
      "ibility": 1412,
      "Ġoverall": 1413,
      "Ġdiff": 1414,
      "Ġcomplex": 1415,
      "ross": 1416,
      "Ġfield": 1417,
      "Ġrespons": 1418,
      "Ġleg": 1419,
      "Ġstudy": 1420,
      "Ġplants": 1421,
      "Ġ-": 1422,
      "Ġoccur": 1423,
      "Ġmove": 1424,
      "rest": 1425,
      "inal": 1426,
      "utions": 1427,
      "Ġindustry": 1428,
      "ined": 1429,
      "Ġop": 1430,
      "acy": 1431,
      "ats": 1432,
      "Ġnet": 1433,
      "Ġinteg": 1434,
      "Ġ3": 1435,
      "Ġarea": 1436,
      "Ġconsider": 1437,
      "Ġspecial": 1438,
      "ner": 1439,
      "oft": 1440,
      "Ġlim": 1441,
      "agn": 1442,
      "Ġes": 1443,
      "Ġsit": 1444,
      "Ġmuch": 1445,
      "vern": 1446,
      "Ġchallenges": 1447,
      "Ġide": 1448,
      "ale": 1449,
      "Ġcrit": 1450,
      "Ġconnect": 1451,
      "orts": 1452,
      "Ġbehav": 1453,
      "Ġstep": 1454,
      "Ġrev": 1455,
      "rapy": 1456,
      "Ġcall": 1457,
      "Ġaddress": 1458,
      "ledge": 1459,
      "Ġskin": 1460,
      "ft": 1461,
      "Ġperformance": 1462,
      "ph": 1463,
      "Ġmem": 1464,
      "Ġcomb": 1465,
      "chie": 1466,
      "aking": 1467,
      "Ġtools": 1468,
      "'t": 1469,
      "Ġcomput": 1470,
      "ruction": 1471,
      "ĠWhen": 1472,
      "angu": 1473,
      "irc": 1474,
      "Ġeconom": 1475,
      "Ġoffer": 1476,
      "Ġmot": 1477,
      "cer": 1478,
      "Ġnumber": 1479,
      "Ġamount": 1480,
      "ĠAl": 1481,
      "Ġsurf": 1482,
      "nov": 1483,
      "rodu": 1484,
      "atory": 1485,
      "Ġaddition": 1486,
      "Ġidentify": 1487,
      "Ġgroup": 1488,
      "Ġtemper": 1489,
      "Ġscho": 1490,
      "iod": 1491,
      "Ġservices": 1492,
      "ancial": 1493,
      "Ġavoid": 1494,
      "Ġfeel": 1495,
      "Ġallows": 1496,
      "de": 1497,
      "icult": 1498,
      "Ġplace": 1499,
      "ape": 1500,
      "Ġsame": 1501,
      "oint": 1502,
      "Ġchange": 1503,
      "ars": 1504,
      "Ġlow": 1505,
      "Ġrest": 1506,
      "Ġachie": 1507,
      "imal": 1508,
      "Ġstress": 1509,
      "ones": 1510,
      "Ġgl": 1511,
      "ention": 1512,
      "ffic": 1513,
      "Ġcour": 1514,
      "Ġtop": 1515,
      "Ġincrease": 1516,
      "Ġpressure": 1517,
      "Ġbal": 1518,
      "Ġcertain": 1519,
      "Ġchem": 1520,
      "Ġtechniques": 1521,
      "ted": 1522,
      "Ġsoil": 1523,
      "pecial": 1524,
      "Ġtransp": 1525,
      "bs": 1526,
      "Ġpossible": 1527,
      "Ġaw": 1528,
      "ĠInd": 1529,
      "Ġnecessary": 1530,
      "Ġpublic": 1531,
      "Ġcondition": 1532,
      "ple": 1533,
      "ared": 1534,
      "bal": 1535,
      "ators": 1536,
      "Ġdepend": 1537,
      "Ġsuccess": 1538,
      "ec": 1539,
      "Ġeducation": 1540,
      "Ġwrit": 1541,
      "ustom": 1542,
      "Ġsw": 1543,
      "Ġdamage": 1544,
      "Ġability": 1545,
      "Ġensuring": 1546,
      "ash": 1547,
      "ĠTo": 1548,
      "reng": 1549,
      "Ġproviding": 1550,
      "atic": 1551,
      "Ġest": 1552,
      "Ġshow": 1553,
      "Ġchanges": 1554,
      "ables": 1555,
      "Ġcal": 1556,
      "ique": 1557,
      "pportun": 1558,
      "Ġwide": 1559,
      "This": 1560,
      "Ġday": 1561,
      "aces": 1562,
      "io": 1563,
      "Ġavailable": 1564,
      "Ġefficient": 1565,
      "Ġmethods": 1566,
      "Ġbased": 1567,
      "atures": 1568,
      ").": 1569,
      "Ġpractices": 1570,
      "How": 1571,
      "Ġmight": 1572,
      "Ġsoft": 1573,
      "hers": 1574,
      "Ġregul": 1575,
      "iety": 1576,
      "ways": 1577,
      "Ġprovides": 1578,
      "Ġpresent": 1579,
      "Ġbel": 1580,
      "Ġagain": 1581,
      "Ġclo": 1582,
      "Ġdiet": 1583,
      "Ġbas": 1584,
      "ĠWith": 1585,
      "Ġtre": 1586,
      "ath": 1587,
      "Ġpersonal": 1588,
      "aring": 1589,
      "Ġdeterm": 1590,
      "Ġey": 1591,
      "tery": 1592,
      "Ġefficiency": 1593,
      "Ġhealthcare": 1594,
      "Ġregular": 1595,
      "Ġaccur": 1596,
      "Ġassoci": 1597,
      "ysis": 1598,
      "ipment": 1599,
      "ivers": 1600,
      "Ġeffects": 1601,
      "Ġful": 1602,
      "Ġknowledge": 1603,
      "Ġexerc": 1604,
      "Ġmonit": 1605,
      "Ġapproach": 1606,
      "uss": 1607,
      "Ġmusc": 1608,
      "Ġsustainable": 1609,
      "Ġwaste": 1610,
      "ds": 1611,
      "Ġgr": 1612,
      "elf": 1613,
      "Ġfil": 1614,
      "leep": 1615,
      "br": 1616,
      "apt": 1617,
      "Ġdifficult": 1618,
      "Ġable": 1619,
      "Ġopportun": 1620,
      "Ġworks": 1621,
      "Ġste": 1622,
      "usion": 1623,
      "etic": 1624,
      "olution": 1625,
      "Ġcirc": 1626,
      "row": 1627,
      "Ġlangu": 1628,
      "Ġut": 1629,
      "Ġinvolves": 1630,
      "Ġemploy": 1631,
      "Ġtraining": 1632,
      "Ġfinancial": 1633,
      "ason": 1634,
      "Ġinteract": 1635,
      "Ġreducing": 1636,
      "Ġdirect": 1637,
      "fort": 1638,
      "Ġpoint": 1639,
      "Ġpar": 1640,
      "Ġfew": 1641,
      "ĠEx": 1642,
      "chan": 1643,
      "Ġfre": 1644,
      "Ġprec": 1645,
      "ently": 1646,
      "Ġusually": 1647,
      "Ġteeth": 1648,
      "gen": 1649,
      "Ġsecurity": 1650,
      "verse": 1651,
      "Ġexperien": 1652,
      "Ġprocesses": 1653,
      "inc": 1654,
      "pos": 1655,
      "Ġher": 1656,
      "pecially": 1657,
      "ditionally": 1658,
      "omen": 1659,
      "mm": 1660,
      "Ġstreng": 1661,
      "Ġmarket": 1662,
      "Ġengine": 1663,
      "Ġshe": 1664,
      "Ġintern": 1665,
      "Ġdra": 1666,
      "ots": 1667,
      "Ġloss": 1668,
      "oura": 1669,
      "Ġproblem": 1670,
      "Ġgovern": 1671,
      "Ġenhance": 1672,
      "Ġdevices": 1673,
      "Ġhis": 1674,
      "ression": 1675,
      "Ġequipment": 1676,
      "Ġperiod": 1677,
      "Ġunique": 1678,
      "omet": 1679,
      "Ġcustom": 1680,
      "Ġheart": 1681,
      "ven": 1682,
      "Ġhig": 1683,
      "light": 1684,
      "rence": 1685,
      "Ġstate": 1686,
      "tle": 1687,
      "ouse": 1688,
      "Ġinnov": 1689,
      "Ġmedic": 1690,
      "Ġtraditional": 1691,
      "Ġcut": 1692,
      "ĠSome": 1693,
      "Ġanaly": 1694,
      "ips": 1695,
      "lish": 1696,
      "amm": 1697,
      "Ġlo": 1698,
      "Ġret": 1699,
      "Ġinterest": 1700,
      "riend": 1701,
      "day": 1702,
      "gn": 1703,
      "Ġdesigned": 1704,
      "ended": 1705,
      "ified": 1706,
      "ĠTe": 1707,
      "Ġpass": 1708,
      "Ġothers": 1709,
      "bers": 1710,
      "ides": 1711,
      "Ġtas": 1712,
      "Ġobject": 1713,
      "Ġautom": 1714,
      "Ġespecially": 1715,
      "Ġel": 1716,
      "Ġvariety": 1717,
      "Ġorder": 1718,
      "Ġways": 1719,
      "ush": 1720,
      "Ġlocal": 1721,
      "lev": 1722,
      "ury": 1723,
      "Ġgam": 1724,
      "Ġdog": 1725,
      "Ġdigital": 1726,
      "Ġlit": 1727,
      "Ġflu": 1728,
      "Ġstrong": 1729,
      "ologies": 1730,
      "ĠLe": 1731,
      "ories": 1732,
      "ix": 1733,
      "Ġimplement": 1734,
      "Ġchemical": 1735,
      "iate": 1736,
      "Ġtoo": 1737,
      "duct": 1738,
      "Ġcomponents": 1739,
      "),": 1740,
      "fer": 1741,
      "Ġcommunication": 1742,
      "Ġmeans": 1743,
      "Ġearly": 1744,
      "Ġmental": 1745,
      "ening": 1746,
      "Ġcurrent": 1747,
      "icro": 1748,
      "Ġ20": 1749,
      "Ġfra": 1750,
      "ilit": 1751,
      "oun": 1752,
      "Ġharm": 1753,
      "amin": 1754,
      "self": 1755,
      "Ġcritical": 1756,
      "iple": 1757,
      "Ġemot": 1758,
      "Ġconcern": 1759,
      "Ġinj": 1760,
      "Ġresults": 1761,
      "Ġassociated": 1762,
      "Ġmind": 1763,
      "If": 1764,
      "It": 1765,
      "Ġglo": 1766,
      "Ġrecomm": 1767,
      "istic": 1768,
      "Ġassess": 1769,
      "Ġhard": 1770,
      "Ġcells": 1771,
      "Ġhad": 1772,
      "Ġexpl": 1773,
      "ification": 1774,
      "Ġwant": 1775,
      "Ġheat": 1776,
      "Ġcoll": 1777,
      "Ġcharacter": 1778,
      "Ġminim": 1779,
      "Ġtow": 1780,
      "ograp": 1781,
      "Ġparts": 1782,
      "Ġmechan": 1783,
      "An": 1784,
      "Ġvir": 1785,
      "Ġcommunity": 1786,
      "Ġmo": 1787,
      "osis": 1788,
      "par": 1789,
      "Ġur": 1790,
      "Ġincreasing": 1791,
      "ĠDe": 1792,
      "over": 1793,
      "Ġnon": 1794,
      "ystem": 1795,
      "Ġfurther": 1796,
      "iver": 1797,
      "Ġpopular": 1798,
      "Ġspace": 1799,
      "Ġpatients": 1800,
      "Ġsleep": 1801,
      "Ġtru": 1802,
      "Ġstructure": 1803,
      "Ġworking": 1804,
      "astic": 1805,
      "Ġinflu": 1806,
      "Ġlanguage": 1807,
      "Ġcases": 1808,
      "Ġcr": 1809,
      "Ġanother": 1810,
      "Ġexplore": 1811,
      "Ġprim": 1812,
      "Ġremain": 1813,
      "ator": 1814,
      "Ġfree": 1815,
      "Ġstrategies": 1816,
      "oy": 1817,
      "ties": 1818,
      "aling": 1819,
      "Ġsurface": 1820,
      "Ġquick": 1821,
      "Ġadvant": 1822,
      "Ġmakes": 1823,
      "oot": 1824,
      "Ġarticle": 1825,
      "Ġlower": 1826,
      "Ġspecies": 1827,
      "Ġfore": 1828,
      "Ġeffectively": 1829,
      "Ġhistory": 1830,
      "Ġbuilding": 1831,
      "Ġsubst": 1832,
      "oney": 1833,
      "alu": 1834,
      "Ġquest": 1835,
      "Ġer": 1836,
      "Ġelectric": 1837,
      "ĠSe": 1838,
      "Ġpattern": 1839,
      "Ġstill": 1840,
      "Ġemerg": 1841,
      "Ġfollowing": 1842,
      "Ġlay": 1843,
      "ises": 1844,
      "Ġweight": 1845,
      "nder": 1846,
      "Ġrun": 1847,
      "ince": 1848,
      "ĠOn": 1849,
      "iting": 1850,
      "lements": 1851,
      "ave": 1852,
      "Ġcontent": 1853,
      "ising": 1854,
      "lex": 1855,
      "Ġcome": 1856,
      "Ġteam": 1857,
      "izations": 1858,
      "ĠPl": 1859,
      "Ġoil": 1860,
      "Ġdiagn": 1861,
      "Ġtherapy": 1862,
      "Ġproced": 1863,
      "Ġhigher": 1864,
      "Ġleading": 1865,
      "Ġanalysis": 1866,
      "Ġtext": 1867,
      "ĠRes": 1868,
      "Ġagainst": 1869,
      "When": 1870,
      "Ġcreating": 1871,
      "eds": 1872,
      "Ġprofessional": 1873,
      "ney": 1874,
      "Ġtypically": 1875,
      "Ġfamily": 1876,
      "Ġacross": 1877,
      "Ġcontribute": 1878,
      "ute": 1879,
      "ĠNe": 1880,
      "ored": 1881,
      "being": 1882,
      "Ġtool": 1883,
      "Ġrelations": 1884,
      "ronic": 1885,
      "istance": 1886,
      "ax": 1887,
      "Ġonline": 1888,
      "hens": 1889,
      "Ġaspect": 1890,
      "Ġpractice": 1891,
      "As": 1892,
      "outh": 1893,
      "Ġlaw": 1894,
      "Ġcancer": 1895,
      "hic": 1896,
      "Ġvol": 1897,
      "Ġhead": 1898,
      "Ġschool": 1899,
      "ump": 1900,
      "Ġexam": 1901,
      "Ġexpos": 1902,
      "Ġlook": 1903,
      "isions": 1904,
      "Ġthree": 1905,
      "Ġbro": 1906,
      "ĠWhile": 1907,
      "ording": 1908,
      "There": 1909,
      "tic": 1910,
      "Ġter": 1911,
      "Ġrad": 1912,
      "Ġsec": 1913,
      "Ġtransport": 1914,
      "Ġtooth": 1915,
      "Ġcalled": 1916,
      "Ġsoftware": 1917,
      "Ġsure": 1918,
      "Ġcarb": 1919,
      "Ġtemperature": 1920,
      "Ġconstruction": 1921,
      "Ġmachine": 1922,
      "erous": 1923,
      "Ġself": 1924,
      "Ġreli": 1925,
      "Ġconcept": 1926,
      "Ġtechnologies": 1927,
      "ised": 1928,
      "Ġpositive": 1929,
      "sy": 1930,
      "Ġbeg": 1931,
      "ges": 1932,
      "ropri": 1933,
      "Ġthough": 1934,
      "idence": 1935,
      "Ġrequires": 1936,
      "Ġsitu": 1937,
      "tenance": 1938,
      "Ġclear": 1939,
      "ished": 1940,
      "Ġgain": 1941,
      "Ġamong": 1942,
      "Ġrequired": 1943,
      "Ġimportance": 1944,
      "ken": 1945,
      "Ġtoget": 1946,
      "Ġrecogn": 1947,
      "Ġtogether": 1948,
      "to": 1949,
      "Ġactivity": 1950,
      "Ġpost": 1951,
      "Ġpred": 1952,
      "Ġfrequ": 1953,
      "osp": 1954,
      "Ġdiscuss": 1955,
      "Ġcat": 1956,
      "Ġpatient": 1957,
      "Ġopen": 1958,
      "ered": 1959,
      "Ġsource": 1960,
      "Ġbrain": 1961,
      "ĠSc": 1962,
      "Ġadapt": 1963,
      "Ġec": 1964,
      "Ġfund": 1965,
      "aves": 1966,
      "lying": 1967,
      "Ġrisks": 1968,
      "Ġcauses": 1969,
      "ropriate": 1970,
      "uro": 1971,
      "ancing": 1972,
      "Ġtimes": 1973,
      "ĠAdditionally": 1974,
      "jor": 1975,
      "Ġgard": 1976,
      "Ġmar": 1977,
      "li": 1978,
      "for": 1979,
      "ilar": 1980,
      "meric": 1981,
      "Ġcompan": 1982,
      "izes": 1983,
      "Ġmeet": 1984,
      "Ġmy": 1985,
      "Ġsolutions": 1986,
      "Ġremov": 1987,
      "Ġbehavior": 1988,
      "Ġdetail": 1989,
      "Ġsources": 1990,
      "Ġrece": 1991,
      "cies": 1992,
      "aches": 1993,
      "rical": 1994,
      "Ġincreased": 1995,
      "Ġfeed": 1996,
      "Ġparticularly": 1997,
      "ights": 1998,
      "Ġage": 1999,
      "ĠBe": 2000,
      "Ġincludes": 2001,
      "Ġrelationship": 2002,
      "Ġmeasure": 2003,
      "Ġfast": 2004,
      "ected": 2005,
      "Ġhab": 2006,
      "Ġstre": 2007,
      "iation": 2008,
      "Ġallowing": 2009,
      "orpor": 2010,
      "ode": 2011,
      "Ġdisord": 2012,
      "standing": 2013,
      "Ġbusinesses": 2014,
      "Ġdiseases": 2015,
      "Ġwin": 2016,
      "Ġbelie": 2017,
      "Ġencoura": 2018,
      "hem": 2019,
      "Ġsmo": 2020,
      "yle": 2021,
      "let": 2022,
      "Ġfoods": 2023,
      "lection": 2024,
      "Ġoffers": 2025,
      "Ġguid": 2026,
      "Ġbacter": 2027,
      "Ġintegr": 2028,
      "Ġcomplete": 2029,
      "Ġaccount": 2030,
      "Ġcase": 2031,
      "pr": 2032,
      "ĠAr": 2033,
      "itable": 2034,
      "Ġpoll": 2035,
      "Ġtransform": 2036,
      "based": 2037,
      "Ġutil": 2038,
      "Ġvital": 2039,
      "ches": 2040,
      "here": 2041,
      "Ġproduce": 2042,
      "Ġbat": 2043,
      "rast": 2044,
      "rial": 2045,
      "Ġachieve": 2046,
      "aily": 2047,
      "imals": 2048,
      "ĠImp": 2049,
      "gs": 2050,
      "Ġsize": 2051,
      "gress": 2052,
      "aren": 2053,
      "Ġgreen": 2054,
      "Ġmajor": 2055,
      "ules": 2056,
      "Ġnow": 2057,
      "Ġcompre": 2058,
      "Ġmodel": 2059,
      "ler": 2060,
      "ging": 2061,
      "Ġneg": 2062,
      "ĠEng": 2063,
      "Ġhapp": 2064,
      "Ġoptim": 2065,
      "To": 2066,
      "inking": 2067,
      "Ġshort": 2068,
      "Ġcosts": 2069,
      "Ġmaintaining": 2070,
      "Ġmodern": 2071,
      "Ġprote": 2072,
      "Ġcra": 2073,
      "mental": 2074,
      "Ġrequirements": 2075,
      "Ġdoct": 2076,
      "erve": 2077,
      "pping": 2078,
      "Ġgas": 2079,
      "ensive": 2080,
      "Ġnetwork": 2081,
      "Ġproperties": 2082,
      "rior": 2083,
      "ane": 2084,
      "Ġside": 2085,
      "ired": 2086,
      "Ġnature": 2087,
      "Ġwind": 2088,
      "Ġmanufacturing": 2089,
      "ormal": 2090,
      "Ġalways": 2091,
      "Ġvalu": 2092,
      "Ġestab": 2093,
      "One": 2094,
      "Ġfru": 2095,
      "Ġcollect": 2096,
      "Ġground": 2097,
      "Ġappropriate": 2098,
      "Ġinstall": 2099,
      "Ġlikely": 2100,
      "Ġdental": 2101,
      "Ġappear": 2102,
      "ee": 2103,
      "Ġconsist": 2104,
      "Ġblock": 2105,
      "cond": 2106,
      "Ġinit": 2107,
      "Ġstrength": 2108,
      "not": 2109,
      "Ġhyd": 2110,
      "ĠAmeric": 2111,
      "hor": 2112,
      "istics": 2113,
      "ĠComp": 2114,
      "Ġsal": 2115,
      "ock": 2116,
      "Ġpromote": 2117,
      "Ġrepres": 2118,
      "Ġmeasures": 2119,
      "ĠWor": 2120,
      "sc": 2121,
      "Ġthings": 2122,
      "ank": 2123,
      "Ġflo": 2124,
      "Ġusers": 2125,
      "Ġmean": 2126,
      "Ġcontact": 2127,
      "vere": 2128,
      "Ġnutri": 2129,
      "Ġmicro": 2130,
      "ites": 2131,
      "ching": 2132,
      "ox": 2133,
      "ote": 2134,
      "une": 2135,
      "Ġdaily": 2136,
      "aching": 2137,
      "just": 2138,
      "Ġneeded": 2139,
      "Ġconduct": 2140,
      "Ġparticip": 2141,
      "Ġfeatures": 2142,
      "Ġmaintenance": 2143,
      "Ġopportunities": 2144,
      "ont": 2145,
      "Ġvalue": 2146,
      "ward": 2147,
      "Ġeasy": 2148,
      "Ġprint": 2149,
      "ĠOne": 2150,
      "Ġcourse": 2151,
      "Ġbir": 2152,
      "gar": 2153,
      "Ġscient": 2154,
      "aut": 2155,
      "ters": 2156,
      "ending": 2157,
      "Ġcontinu": 2158,
      "Ġcaused": 2159,
      "Ġcy": 2160,
      "Ġprograms": 2161,
      "Ġland": 2162,
      "'re": 2163,
      "icate": 2164,
      "Ġemb": 2165,
      "Ġmetal": 2166,
      "Ġaccurate": 2167,
      "Ġcomes": 2168,
      "Ġsolar": 2169,
      "cks": 2170,
      "Ġadvance": 2171,
      "lications": 2172,
      "Ġattention": 2173,
      "ellig": 2174,
      "Ġalong": 2175,
      "rences": 2176,
      "Ġapplication": 2177,
      "Ġeye": 2178,
      "nderstanding": 2179,
      "ng": 2180,
      "Ġeconomic": 2181,
      "Ġce": 2182,
      "Ġabs": 2183,
      "Ġjoint": 2184,
      "icial": 2185,
      "Ġmoney": 2186,
      "Ġorganizations": 2187,
      "Ġwhy": 2188,
      "Ġsignificantly": 2189,
      "Ġpolic": 2190,
      "Ġoptions": 2191,
      "Ġdry": 2192,
      "Ġsupply": 2193,
      "Ġbra": 2194,
      "Ġsimple": 2195,
      "Ġcompanies": 2196,
      "Ġcomprehens": 2197,
      "elling": 2198,
      "Ġfat": 2199,
      "yn": 2200,
      "Ġdeveloping": 2201,
      "Ġprotection": 2202,
      "Ġfarm": 2203,
      "Ġprep": 2204,
      "Ġfib": 2205,
      "Ġprev": 2206,
      "Ġtasks": 2207,
      "Ġindustries": 2208,
      "Ġir": 2209,
      "Ġlands": 2210,
      "Ġcolor": 2211,
      "ission": 2212,
      "Ġmultiple": 2213,
      "term": 2214,
      "Ġdecisions": 2215,
      "Ġtaking": 2216,
      "Ġill": 2217,
      "Ġexercise": 2218,
      "Ġtiss": 2219,
      "ĠHealth": 2220,
      "Ġcheck": 2221,
      "put": 2222,
      "ring": 2223,
      "Ġsound": 2224,
      "Ġprojects": 2225,
      "ex": 2226,
      "Ġconcl": 2227,
      "Ġrepl": 2228,
      "Ġaim": 2229,
      "Ġrelated": 2230,
      "abilities": 2231,
      "Ġsense": 2232,
      "ricult": 2233,
      "Ġeasily": 2234,
      "Ġsubject": 2235,
      "Ġbalance": 2236,
      "Ġ5": 2237,
      "Ġgive": 2238,
      "orage": 2239,
      "Ġstay": 2240,
      "ections": 2241,
      "Ġanimals": 2242,
      "ĠCont": 2243,
      "atform": 2244,
      "Ġwomen": 2245,
      "Ġexist": 2246,
      "Ġprofession": 2247,
      "Ġcompet": 2248,
      "Ġ4": 2249,
      "hold": 2250,
      "aged": 2251,
      "ems": 2252,
      "Ġevalu": 2253,
      "Ġcommunities": 2254,
      "Ġrout": 2255,
      "Ġpatterns": 2256,
      "Ġfost": 2257,
      "Ġreact": 2258,
      "Ġsun": 2259,
      "Ġcomputer": 2260,
      "ours": 2261,
      "ery": 2262,
      "ead": 2263,
      "rel": 2264,
      "Ġpay": 2265,
      "Ġprior": 2266,
      "though": 2267,
      "Ġaltern": 2268,
      "Ġvisual": 2269,
      "Ġcollabor": 2270,
      "Ġtoday": 2271,
      "Ġjob": 2272,
      "Ġprinc": 2273,
      "Ġturn": 2274,
      "crib": 2275,
      "ctions": 2276,
      "Ġsing": 2277,
      "Ġpriv": 2278,
      "osing": 2279,
      "Ġvaluable": 2280,
      "ences": 2281,
      "ym": 2282,
      "Ġactive": 2283,
      "Ġcarbon": 2284,
      "Ġintrodu": 2285,
      "igate": 2286,
      "Ġanalyz": 2287,
      "Ġ19": 2288,
      "Ġjour": 2289,
      "Ġdeep": 2290,
      "imin": 2291,
      "sych": 2292,
      "Ġelectrical": 2293,
      "atives": 2294,
      "Ġbreat": 2295,
      "Ġpaper": 2296,
      "Ġglobal": 2297,
      "rict": 2298,
      "Ġdetermine": 2299,
      "acks": 2300,
      "ervation": 2301,
      "Ġhold": 2302,
      "Ġorig": 2303,
      "Ġpric": 2304,
      "Ġprogram": 2305,
      "Ġrob": 2306,
      "ĠYour": 2307,
      "Ġarch": 2308,
      "Ġline": 2309,
      "ĠAt": 2310,
      "Ġpath": 2311,
      "Ġresponsible": 2312,
      "Ġdone": 2313,
      "Ġtar": 2314,
      "uries": 2315,
      "Ġdru": 2316,
      "Ġuses": 2317,
      "Ġquickly": 2318,
      "Ġlist": 2319,
      "idered": 2320,
      "Ġvit": 2321,
      "riendly": 2322,
      "Ġloo": 2323,
      "ife": 2324,
      "St": 2325,
      "ocu": 2326,
      "Ġdemand": 2327,
      "aries": 2328,
      "oming": 2329,
      "iversity": 2330,
      "Ġadjust": 2331,
      "Ġthroughout": 2332,
      "Ġgeneral": 2333,
      "ests": 2334,
      "Ġfire": 2335,
      "Ġexce": 2336,
      "Ġclimate": 2337,
      "Ġtry": 2338,
      "Ġold": 2339,
      "ĠQ": 2340,
      "joy": 2341,
      "time": 2342,
      "Ġsimilar": 2343,
      "Ġcorrect": 2344,
      "Ġsteps": 2345,
      "aving": 2346,
      "Ġparent": 2347,
      "Ġwhether": 2348,
      "Ġtowards": 2349,
      "selves": 2350,
      "Ġenough": 2351,
      "Ġsevere": 2352,
      "Ġplatform": 2353,
      "Ġaud": 2354,
      "Ġlives": 2355,
      "Ġbreak": 2356,
      "Ġvers": 2357,
      "Ġscience": 2358,
      "sing": 2359,
      "Ġconsidered": 2360,
      "Ġtesting": 2361,
      "teries": 2362,
      "Ġflex": 2363,
      "Ġuser": 2364,
      "Ġplastic": 2365,
      "Ġview": 2366,
      "ĠCons": 2367,
      "ĠMan": 2368,
      "Ġcommonly": 2369,
      "Ġfail": 2370,
      "Ġcompany": 2371,
      "Ġtend": 2372,
      "hing": 2373,
      "Ġgovernment": 2374,
      "isms": 2375,
      "ĠBut": 2376,
      "arc": 2377,
      "Ġdur": 2378,
      "Ġwood": 2379,
      "Ġstudies": 2380,
      "Ġservice": 2381,
      "Ġmonitoring": 2382,
      "Ġlast": 2383,
      "itis": 2384,
      "ĠSh": 2385,
      "Ġrecord": 2386,
      "Ġge": 2387,
      "sequ": 2388,
      "Ġinfection": 2389,
      "Ġlandsc": 2390,
      "Ġadvanced": 2391,
      "ructure": 2392,
      "Ġmanufacture": 2393,
      "Ġselect": 2394,
      "ĠHere": 2395,
      "Ġcultural": 2396,
      "Ġcover": 2397,
      "Ġface": 2398,
      "Ġox": 2399,
      "Ġobs": 2400,
      "Ġaway": 2401,
      "Ġcomprehensive": 2402,
      "asc": 2403,
      "Ġkind": 2404,
      "gery": 2405,
      "Ġbacteria": 2406,
      "Ġfull": 2407,
      "Ġsl": 2408,
      "Ġveget": 2409,
      "ĠComm": 2410,
      "Ġelements": 2411,
      "Ġpan": 2412,
      "Ġstorage": 2413,
      "ray": 2414,
      "ĠReg": 2415,
      "Ġunt": 2416,
      "Ġprocessing": 2417,
      "Ġspread": 2418,
      "orn": 2419,
      "abet": 2420,
      "Ġcyc": 2421,
      "Ġprimary": 2422,
      "Ġimproving": 2423,
      "Ġengage": 2424,
      "Ġexperiences": 2425,
      "Ġalg": 2426,
      "Ġenjoy": 2427,
      "Ġspeed": 2428,
      "Ġbegin": 2429,
      "mb": 2430,
      "Ġmodels": 2431,
      "Ġver": 2432,
      "Ġexc": 2433,
      "ĠCl": 2434,
      "fully": 2435,
      "cc": 2436,
      "Ġprogress": 2437,
      "Ġshap": 2438,
      "Ġput": 2439,
      "Ġwee": 2440,
      "Ġdecision": 2441,
      "Ġlet": 2442,
      "Ġlottery": 2443,
      "ths": 2444,
      "Ġincorpor": 2445,
      "Ġsolution": 2446,
      "Ġcountries": 2447,
      "Ġcontinue": 2448,
      "Ġmov": 2449,
      "Ġsugg": 2450,
      "ember": 2451,
      "oor": 2452,
      "ott": 2453,
      "Ġensures": 2454,
      "Ġstandards": 2455,
      "pper": 2456,
      "Ġprofessionals": 2457,
      "Ġhaving": 2458,
      "Ġcannot": 2459,
      "Ġcalc": 2460,
      "rition": 2461,
      "Ġchoice": 2462,
      "Ġz": 2463,
      "Ġchoose": 2464,
      "ĠSp": 2465,
      "Ġeth": 2466,
      "pose": 2467,
      "xiety": 2468,
      "Ġsecure": 2469,
      "cent": 2470,
      "Ch": 2471,
      "alk": 2472,
      "ians": 2473,
      "eral": 2474,
      "ĠAnd": 2475,
      "Ġoperations": 2476,
      "Ġlegal": 2477,
      "side": 2478,
      "Ġplays": 2479,
      "alls": 2480,
      "Ġmuscle": 2481,
      "ibr": 2482,
      "Ġgoals": 2483,
      "Ġred": 2484,
      "Ġdon": 2485,
      "Ġlive": 2486,
      "aced": 2487,
      "Ġforms": 2488,
      "Ġthreat": 2489,
      "ĠTra": 2490,
      "For": 2491,
      "onse": 2492,
      "Ġclose": 2493,
      "min": 2494,
      "Ġadvantages": 2495,
      "Ġfoot": 2496,
      "Ġsingle": 2497,
      "Ġcool": 2498,
      "Ġteac": 2499,
      "ads": 2500,
      "oes": 2501,
      "Ġsigns": 2502,
      "Ġcomfort": 2503,
      "Ġgrowing": 2504,
      "Ġdoctor": 2505,
      "Ġconsumption": 2506,
      "Ġbar": 2507,
      "emic": 2508,
      "Ġdetect": 2509,
      "mit": 2510,
      "works": 2511,
      "lease": 2512,
      "Ġmagn": 2513,
      "land": 2514,
      "Ġagricult": 2515,
      "Ġado": 2516,
      "overy": 2517,
      "ĠSo": 2518,
      "Ġgarden": 2519,
      "Ġdraw": 2520,
      "Ad": 2521,
      "illing": 2522,
      "Ġexcess": 2523,
      "Ġintellig": 2524,
      "Ġrepresent": 2525,
      "ps": 2526,
      "Ġserious": 2527,
      "Ġemotional": 2528,
      "Ġdocu": 2529,
      "Ġterm": 2530,
      "ole": 2531,
      "ynam": 2532,
      "by": 2533,
      "rig": 2534,
      "arning": 2535,
      "Ġgroups": 2536,
      "Ġwebs": 2537,
      "Ġfit": 2538,
      "Ġliving": 2539,
      "Ġreport": 2540,
      "Ġmachines": 2541,
      "ometimes": 2542,
      "Ġsociety": 2543,
      "Ġfu": 2544,
      "Ġoutc": 2545,
      "Ġculture": 2546,
      "Ġhighly": 2547,
      "Ġhere": 2548,
      "areness": 2549,
      "Ġgum": 2550,
      "ulate": 2551,
      "Ġsuitable": 2552,
      "iveness": 2553,
      "Ġhouse": 2554,
      "Ġdeveloped": 2555,
      "Ġfish": 2556,
      "pped": 2557,
      "Ġnegative": 2558,
      "Ġport": 2559,
      "Ġheav": 2560,
      "Ġcry": 2561,
      "Ġadditional": 2562,
      "Ġsugar": 2563,
      "oles": 2564,
      "Ġgiven": 2565,
      "inary": 2566,
      "Ġinflamm": 2567,
      "Ġvide": 2568,
      "Ġsecond": 2569,
      "Ġpromoting": 2570,
      "yp": 2571,
      "ĠIs": 2572,
      "ĠCan": 2573,
      "Ġshape": 2574,
      "Ġnear": 2575,
      "Ġmovement": 2576,
      "Ġpie": 2577,
      "fficient": 2578,
      "Ġcoo": 2579,
      "Ġinvolved": 2580,
      "itect": 2581,
      "Ġindustrial": 2582,
      "Ġsteel": 2583,
      "reme": 2584,
      "Ġremove": 2585,
      "Ġmold": 2586,
      "rate": 2587,
      "Ġposition": 2588,
      "onst": 2589,
      "ret": 2590,
      "ediate": 2591,
      "Ġenvironments": 2592,
      "Ġdevice": 2593,
      "Ġconclusion": 2594,
      "iot": 2595,
      "Ġwriting": 2596,
      "oll": 2597,
      "idents": 2598,
      "asons": 2599,
      "chain": 2600,
      "Ġdiverse": 2601,
      "While": 2602,
      "Ġyoung": 2603,
      "ma": 2604,
      "ug": 2605,
      "Ġinsights": 2606,
      "Ġquestions": 2607,
      "ners": 2608,
      "rs": 2609,
      "water": 2610,
      "ither": 2611,
      "Ġsince": 2612,
      "ores": 2613,
      "ived": 2614,
      "Ġresponse": 2615,
      "Ġresistance": 2616,
      "ĠPh": 2617,
      "Ġreason": 2618,
      "cking": 2619,
      "ĠMany": 2620,
      "Ġconcerns": 2621,
      "Ġimproved": 2622,
      "ses": 2623,
      "Ġcapt": 2624,
      "Ġsat": 2625,
      "Ġsurround": 2626,
      "Ġaction": 2627,
      "Ġet": 2628,
      "Ġstructures": 2629,
      "ilt": 2630,
      "edic": 2631,
      "Ġevol": 2632,
      "itation": 2633,
      "ulations": 2634,
      "Ġwild": 2635,
      "Ġpack": 2636,
      "Ġmusic": 2637,
      "abetes": 2638,
      "idd": 2639,
      "like": 2640,
      "Ġrich": 2641,
      "Ġplanning": 2642,
      "Ġdays": 2643,
      "orith": 2644,
      "ield": 2645,
      "Ġtaken": 2646,
      "Ġmob": 2647,
      "Ġoral": 2648,
      "Ġlittle": 2649,
      "Ġevents": 2650,
      "ificial": 2651,
      "Ġregard": 2652,
      "Ġproperly": 2653,
      "ban": 2654,
      "Ġcard": 2655,
      "gu": 2656,
      "Ġpsych": 2657,
      "iring": 2658,
      "Ġdang": 2659,
      "osystem": 2660,
      "Ġanxiety": 2661,
      "ĠStud": 2662,
      "Ġaspects": 2663,
      "We": 2664,
      "Ġslow": 2665,
      "Ġvary": 2666,
      "Ġexposure": 2667,
      "Ġmoist": 2668,
      "Ġextra": 2669,
      "Ġeducational": 2670,
      "Ġfamil": 2671,
      "Ġgenerally": 2672,
      "Ġphot": 2673,
      "Ġacid": 2674,
      "Ġthemselves": 2675,
      "eding": 2676,
      "Ġcountry": 2677,
      "Ġrecyc": 2678,
      "nds": 2679,
      "Ġpast": 2680,
      "Ġhair": 2681,
      "Ġfacilit": 2682,
      "Ġrap": 2683,
      "xim": 2684,
      "Ġbasic": 2685,
      "ees": 2686,
      "duc": 2687,
      "Ġsurgery": 2688,
      "Ġprotein": 2689,
      "Ġlonger": 2690,
      "Ġdent": 2691,
      "Ġevent": 2692,
      "ably": 2693,
      "ĠSu": 2694,
      "Ġsect": 2695,
      "Ġtree": 2696,
      "Ġsuff": 2697,
      "oud": 2698,
      "Ġaffected": 2699,
      "iet": 2700,
      "Ġtrees": 2701,
      "Ġtarget": 2702,
      "Ġmedia": 2703,
      "Ġtravel": 2704,
      "Ġdecre": 2705,
      "Ġrapid": 2706,
      "Ġrecommend": 2707,
      "rastructure": 2708,
      "Ġstat": 2709,
      "ribution": 2710,
      "Ġcapac": 2711,
      "Ġnav": 2712,
      "Ġbring": 2713,
      "tings": 2714,
      "esp": 2715,
      "Ġbone": 2716,
      "Ġroot": 2717,
      "Ġbenefit": 2718,
      "equ": 2719,
      "cient": 2720,
      "Ġalgorith": 2721,
      "Ġregulations": 2722,
      "Ġgreater": 2723,
      "rans": 2724,
      "Ġwhole": 2725,
      "ĠTechn": 2726,
      "sw": 2727,
      "lied": 2728,
      "Ġvac": 2729,
      "Ġconsult": 2730,
      "Ġnext": 2731,
      "Ġsepar": 2732,
      "Ġentire": 2733,
      "Ġlab": 2734,
      "Ġbeaut": 2735,
      "Ġlooking": 2736,
      "Ġnumerous": 2737,
      "Ġweather": 2738,
      "Ġbur": 2739,
      "ĠPre": 2740,
      "Ġframe": 2741,
      "Ġtreatments": 2742,
      "lished": 2743,
      "Ġrot": 2744,
      "tual": 2745,
      "Ġeasier": 2746,
      "Ġthink": 2747,
      "Ġcleaning": 2748,
      "Ġrate": 2749,
      "Ġmouth": 2750,
      "Ġquant": 2751,
      "uit": 2752,
      "ĠInst": 2753,
      "oration": 2754,
      "Ġecosystem": 2755,
      "the": 2756,
      "ĠFrom": 2757,
      "Ġinformed": 2758,
      "oph": 2759,
      "ĠUnited": 2760,
      "Ġaccording": 2761,
      "epend": 2762,
      "Ġsite": 2763,
      "Ġmass": 2764,
      "Ġnormal": 2765,
      "Ġ6": 2766,
      "Ġlog": 2767,
      "Ġlimited": 2768,
      "Ġsustainability": 2769,
      "Ġextreme": 2770,
      "Ġhaz": 2771,
      "issions": 2772,
      "Ġnutrients": 2773,
      "Ġbig": 2774,
      "Ġreflect": 2775,
      "ĠWhat": 2776,
      "Ġuseful": 2777,
      "Ġult": 2778,
      "fl": 2779,
      "ried": 2780,
      "Ġinvolve": 2781,
      "Ġbecomes": 2782,
      "Ġcompos": 2783,
      "ront": 2784,
      "Ġimmune": 2785,
      "ĠApp": 2786,
      "Ġfert": 2787,
      "Ġcutting": 2788,
      "Ġ'": 2789,
      "Ġsom": 2790,
      "hicles": 2791,
      "Ġproperty": 2792,
      "Ġtur": 2793,
      "Ġprincip": 2794,
      "Ġmen": 2795,
      "Ġinfections": 2796,
      "Ġpul": 2797,
      "Ġdirectly": 2798,
      "Ġing": 2799,
      "ething": 2800,
      "You": 2801,
      "Ġinfluence": 2802,
      "Ġsuper": 2803,
      "Ġyourself": 2804,
      "Ġguide": 2805,
      "Ġtests": 2806,
      "az": 2807,
      "Ġmuscles": 2808,
      "Ġleft": 2809,
      "Ġrevolution": 2810,
      "ding": 2811,
      "Ġterms": 2812,
      "Ġleaves": 2813,
      "Ġmedications": 2814,
      "aff": 2815,
      "abric": 2816,
      "Ġwear": 2817,
      "go": 2818,
      "Ġdepending": 2819,
      "Ġtransportation": 2820,
      "Ġfunctions": 2821,
      "Ġhabit": 2822,
      "hol": 2823,
      "Ġimmediate": 2824,
      "gical": 2825,
      "Ġcrop": 2826,
      "ension": 2827,
      "Ġcreated": 2828,
      "Ġfar": 2829,
      "Ġrecent": 2830,
      "Re": 2831,
      "Ġbehavi": 2832,
      "ros": 2833,
      "Ġshare": 2834,
      "Ġoccurs": 2835,
      "Ġstra": 2836,
      "Ġmotor": 2837,
      "Ġuntil": 2838,
      "more": 2839,
      "Ġsmart": 2840,
      "Ġadult": 2841,
      "Ġefforts": 2842,
      "sect": 2843,
      "Ġarchitect": 2844,
      "Ġdom": 2845,
      "Ġinflammation": 2846,
      "Ġmembers": 2847,
      "Ġdispl": 2848,
      "ude": 2849,
      "Ġbeneficial": 2850,
      "Ġreduced": 2851,
      "Ġissue": 2852,
      "Ġpredict": 2853,
      "back": 2854,
      "Ġinside": 2855,
      "Ġpoly": 2856,
      "ming": 2857,
      "Ġrecommended": 2858,
      "Ġweb": 2859,
      "Ġpowerful": 2860,
      "Ġstandard": 2861,
      "Ġestablish": 2862,
      "hib": 2863,
      "Ġwarm": 2864,
      "Ġindic": 2865,
      "Ġenab": 2866,
      "Ġintervent": 2867,
      "thing": 2868,
      "Ġresearc": 2869,
      "yond": 2870,
      "Ġfour": 2871,
      "illed": 2872,
      "ae": 2873,
      "Ġweak": 2874,
      "Ġpump": 2875,
      "Ġeither": 2876,
      "rm": 2877,
      "force": 2878,
      "By": 2879,
      "rupt": 2880,
      "Ġinfrastructure": 2881,
      "Ġdeg": 2882,
      "Ġsomething": 2883,
      "Ġgame": 2884,
      "Ġvehicles": 2885,
      "Ġsus": 2886,
      "Ġseen": 2887,
      "Ġreliable": 2888,
      "Ġabsor": 2889,
      "Ġsamp": 2890,
      "vest": 2891,
      "Ġinjury": 2892,
      "estyle": 2893,
      "Ġdynam": 2894,
      "Ġfall": 2895,
      "ged": 2896,
      "Ġnutrition": 2897,
      "Ġmeaning": 2898,
      "Ġauthor": 2899,
      "Ġgetting": 2900,
      "Ġlack": 2901,
      "ils": 2902,
      "Ġlimit": 2903,
      "Ġlandscape": 2904,
      "Ġrelie": 2905,
      "Ġanimal": 2906,
      "ina": 2907,
      "Ġharmful": 2908,
      "Ġexcell": 2909,
      "isc": 2910,
      "Ġexpert": 2911,
      "Ġmal": 2912,
      "Ġstudent": 2913,
      "Ġcontinuous": 2914,
      "Ġassist": 2915,
      "Ġabove": 2916,
      "Ġbook": 2917,
      "Ġonce": 2918,
      "Ġmit": 2919,
      "Ġinsp": 2920,
      "Ġdiabetes": 2921,
      "Ġglass": 2922,
      "Ġideal": 2923,
      "gi": 2924,
      "ĠOr": 2925,
      "Ġoption": 2926,
      "ift": 2927,
      "ann": 2928,
      "Ġcommit": 2929,
      "Ġcontract": 2930,
      "Ġinnovation": 2931,
      "Ġlink": 2932,
      "ognitive": 2933,
      "has": 2934,
      "Ġcausing": 2935,
      "Ġmaxim": 2936,
      "Ġeat": 2937,
      "Ġconcent": 2938,
      "ĠStates": 2939,
      "Ġprocedure": 2940,
      "hood": 2941,
      "Ġoperation": 2942,
      "Ġpurpose": 2943,
      "fect": 2944,
      "Ġlayer": 2945,
      "Ġprovided": 2946,
      "Ġgames": 2947,
      "Ġlabor": 2948,
      "Ġreasons": 2949,
      "Ġprocedures": 2950,
      "Ġvisit": 2951,
      "Ġrather": 2952,
      "Ġtissue": 2953,
      "'ll": 2954,
      "Ġhistor": 2955,
      "Ġhot": 2956,
      "new": 2957,
      "Ġreading": 2958,
      "Ġrecovery": 2959,
      "cohol": 2960,
      "Ġtips": 2961,
      "Ġshown": 2962,
      "Ġmill": 2963,
      "Ġintelligence": 2964,
      "Ġcontext": 2965,
      "ains": 2966,
      "Ġmix": 2967,
      "Ġrelationships": 2968,
      "Ġlocation": 2969,
      "Ġattract": 2970,
      "Ġresource": 2971,
      "ounter": 2972,
      "Ġaff": 2973,
      "ĠNew": 2974,
      "Ġrepair": 2975,
      "Ġparents": 2976,
      "Ġblack": 2977,
      "Ġawareness": 2978,
      "Ġmanaging": 2979,
      "Ġorganization": 2980,
      "Ġcomponent": 2981,
      "NC": 2982,
      "Ġleast": 2983,
      "Ġjourney": 2984,
      "Ġdat": 2985,
      "Ġcold": 2986,
      "Ġreduces": 2987,
      "Ġreview": 2988,
      "aps": 2989,
      "ster": 2990,
      "Ġoffering": 2991,
      "Ġcompared": 2992,
      "Ġetc": 2993,
      "Ġpet": 2994,
      "Ġaccuracy": 2995,
      "Ġorganic": 2996,
      "Ġenhancing": 2997,
      "Ġdigest": 2998,
      "Ġhours": 2999,
      "Ġforce": 3000,
      "ked": 3001,
      "heets": 3002,
      "Ġcontinues": 3003,
      "rist": 3004,
      "Ġwhite": 3005,
      "Ġpreventing": 3006,
      "cri": 3007,
      "Ġcharacteristics": 3008,
      "Ġname": 3009,
      "Ġbelow": 3010,
      "ival": 3011,
      "ĠUse": 3012,
      "Ġevidence": 3013,
      "Another": 3014,
      "Ġoutcomes": 3015,
      "Ġtail": 3016,
      "arily": 3017,
      "ĠInc": 3018,
      "Ġelimin": 3019,
      "iles": 3020,
      "Ġallerg": 3021,
      "Ġreach": 3022,
      "ying": 3023,
      "ĠEar": 3024,
      "Ġstim": 3025,
      "room": 3026,
      "Ġtechnique": 3027,
      "Ġalign": 3028,
      "ference": 3029,
      "urope": 3030,
      "Ġchemicals": 3031,
      "Ex": 3032,
      "Pro": 3033,
      "On": 3034,
      "Ġeating": 3035,
      "He": 3036,
      "hetic": 3037,
      "elines": 3038,
      "encies": 3039,
      "Ġgoing": 3040,
      "Ġdest": 3041,
      "Ġengineering": 3042,
      "Ġrelev": 3043,
      "iment": 3044,
      "Ġvi": 3045,
      "Ġchallenging": 3046,
      "Ġitems": 3047,
      "Ġones": 3048,
      "Ġsuccessful": 3049,
      "Ġalternative": 3050,
      "Ġsuggest": 3051,
      "ancy": 3052,
      "Ġpurch": 3053,
      "Ġsituations": 3054,
      "Ġvision": 3055,
      "Ġideas": 3056,
      "man": 3057,
      "urthermore": 3058,
      "Ġprinciples": 3059,
      "Al": 3060,
      "Ġhowever": 3061,
      "Ġinstru": 3062,
      "Ġpoor": 3063,
      "ule": 3064,
      "arr": 3065,
      "Ġhelping": 3066,
      "Ġtrust": 3067,
      "ah": 3068,
      "ounds": 3069,
      "Ġpollution": 3070,
      "Ġlat": 3071,
      "avor": 3072,
      "akes": 3073,
      "urance": 3074,
      "Ġocc": 3075,
      "Ġansw": 3076,
      "Ġliqu": 3077,
      "uses": 3078,
      "Ġrights": 3079,
      "Ġtub": 3080,
      "Ġfabric": 3081,
      "umin": 3082,
      "ĠTheir": 3083,
      "Ġpolit": 3084,
      "Ġbroad": 3085,
      "Ġrelative": 3086,
      "Ġlarger": 3087,
      "imately": 3088,
      "aks": 3089,
      "Ġtrig": 3090,
      "ung": 3091,
      "Ġreceive": 3092,
      "Ġstage": 3093,
      "Ġpractical": 3094,
      "Ġsn": 3095,
      "ĠAll": 3096,
      "Ġtakes": 3097,
      "Ġtransfer": 3098,
      "resh": 3099,
      "These": 3100,
      "Ġregularly": 3101,
      "Ġhighlight": 3102,
      "Ġwidely": 3103,
      "ensity": 3104,
      "Ġimages": 3105,
      "Ġvalues": 3106,
      "dr": 3107,
      "Ġprecise": 3108,
      "lies": 3109,
      "Ġlifestyle": 3110,
      "way": 3111,
      "Ġscreen": 3112,
      "Ġpopulation": 3113,
      "Ġfuel": 3114,
      "load": 3115,
      "Ġkid": 3116,
      "Ġdogs": 3117,
      "ffective": 3118,
      "Ġconsequ": 3119,
      "ography": 3120,
      "minist": 3121,
      "af": 3122,
      "yl": 3123,
      "Ġconnection": 3124,
      "view": 3125,
      "Ġdisorders": 3126,
      "Ġexcellent": 3127,
      "Ġsil": 3128,
      "Ġchronic": 3129,
      "Ġoptimal": 3130,
      "Ġmonitor": 3131,
      "mon": 3132,
      "Ġtherm": 3133,
      "ume": 3134,
      "ĠEurope": 3135,
      "Ġpresence": 3136,
      "life": 3137,
      "Ġresearchers": 3138,
      "Ġseek": 3139,
      "Ġresulting": 3140,
      "friendly": 3141,
      "ope": 3142,
      "ĠPr": 3143,
      "Ġincreasingly": 3144,
      "ĠIntern": 3145,
      "Ġhumans": 3146,
      "Ġclin": 3147,
      "Ġwords": 3148,
      "iction": 3149,
      "ĠAss": 3150,
      "ĠTherefore": 3151,
      "Ġadvancements": 3152,
      "ik": 3153,
      "hether": 3154,
      "Ġrespect": 3155,
      "Ġobjects": 3156,
      "Ġtransact": 3157,
      "Ġdifference": 3158,
      "Ġreplace": 3159,
      "earch": 3160,
      "Ġobtain": 3161,
      "bo": 3162,
      "Ġfluid": 3163,
      "En": 3164,
      "Ġproduced": 3165,
      "Ġmatter": 3166,
      "Ġstream": 3167,
      "Ġpoints": 3168,
      "Ġinstit": 3169,
      "Ġimage": 3170,
      "Ġminimize": 3171,
      "Ġinjuries": 3172,
      "Ġerr": 3173,
      "Ġenabling": 3174,
      "Ġdeb": 3175,
      "Ġapplied": 3176,
      "ĠGo": 3177,
      "rogen": 3178,
      "Ġurban": 3179,
      "Ġaid": 3180,
      "Ġstability": 3181,
      "enge": 3182,
      "Ġnumbers": 3183,
      "Ġworkers": 3184,
      "Ġregion": 3185,
      "ops": 3186,
      "ĠAmerican": 3187,
      "active": 3188,
      "ĠMore": 3189,
      "Ġconcepts": 3190,
      "inct": 3191,
      "Ġbehind": 3192,
      "lec": 3193,
      "vity": 3194,
      "Ġsymb": 3195,
      "Ġhorm": 3196,
      "utes": 3197,
      "Ġcombination": 3198,
      "Ġsometimes": 3199,
      "Ġroutine": 3200,
      "Ġtax": 3201,
      "Ġinnovative": 3202,
      "Ġconstant": 3203,
      "Ġemergency": 3204,
      "Ġscientific": 3205,
      "most": 3206,
      "Ġdemonst": 3207,
      "Ġrenew": 3208,
      "Ġvideo": 3209,
      "ener": 3210,
      "Ġdivers": 3211,
      "Ġweld": 3212,
      "Ġegg": 3213,
      "Ġ10": 3214,
      "Ġprecision": 3215,
      "ply": 3216,
      "Ġprop": 3217,
      "Ġresil": 3218,
      "Ġmonths": 3219,
      "Ġexercises": 3220,
      "Ġtrack": 3221,
      "Ġalgorithms": 3222,
      "pro": 3223,
      "Ġinsect": 3224,
      "Ġhands": 3225,
      "Ġteaching": 3226,
      "Ġmoisture": 3227,
      "Ġemployees": 3228,
      "Ġeyes": 3229,
      "ooks": 3230,
      "Ġadopt": 3231,
      "Ġblockchain": 3232,
      "ready": 3233,
      "Ġcapacity": 3234,
      "omfort": 3235,
      "mission": 3236,
      "Ġcarry": 3237,
      "Ġdisorder": 3238,
      "ĠSystem": 3239,
      "rec": 3240,
      "Ġdescrib": 3241,
      "Ġseason": 3242,
      "Ġsmaller": 3243,
      "Ġcentury": 3244,
      "Ġopportunity": 3245,
      "ew": 3246,
      "Ġunc": 3247,
      "umb": 3248,
      "Ġtraffic": 3249,
      "Ġdocument": 3250,
      "Ġserve": 3251,
      "quality": 3252,
      "ef": 3253,
      "ately": 3254,
      "Ġcustomer": 3255,
      "reg": 3256,
      "aly": 3257,
      "Ġmis": 3258,
      "ĠCol": 3259,
      "Ġcontains": 3260,
      "hicle": 3261,
      "Ġitself": 3262,
      "Ġemphas": 3263,
      "Ġwal": 3264,
      "Ġmedication": 3265,
      "Ġremains": 3266,
      "tics": 3267,
      "Ġindepend": 3268,
      "ĠData": 3269,
      "Ġpriorit": 3270,
      "ows": 3271,
      "Ġacad": 3272,
      "Ġteachers": 3273,
      "poses": 3274,
      "Ġancient": 3275,
      "arent": 3276,
      "onal": 3277,
      "Ġbab": 3278,
      "Ġnur": 3279,
      "Ġactually": 3280,
      "Ġalready": 3281,
      "Ġvul": 3282,
      "AI": 3283,
      "Ġbeyond": 3284,
      "Ġload": 3285,
      "enses": 3286,
      "ibilities": 3287,
      "ured": 3288,
      "Ġinternational": 3289,
      "part": 3290,
      "ygen": 3291,
      "Ġthr": 3292,
      "Ġdesigns": 3293,
      "ĠZ": 3294,
      "Ġheavy": 3295,
      "Ġexamples": 3296,
      "Ġincreases": 3297,
      "ership": 3298,
      "Ġarr": 3299,
      "Ġalcohol": 3300,
      "Ġenables": 3301,
      "ĠAfter": 3302,
      "agement": 3303,
      "Ġengaging": 3304,
      "inks": 3305,
      "Ġsports": 3306,
      "Ġexpect": 3307,
      "Ġunderg": 3308,
      "Ġsmooth": 3309,
      "Ġmedicine": 3310,
      "Ġhandle": 3311,
      "Ġnetworks": 3312,
      "Ġethical": 3313,
      "Ġcrypt": 3314,
      "Ġwire": 3315,
      "Ġexch": 3316,
      "Ġvirtual": 3317,
      "Ġencourage": 3318,
      "Ġspir": 3319,
      "Ġelectricity": 3320,
      "Ġfunda": 3321,
      "Ġexpress": 3322,
      "ferences": 3323,
      "rete": 3324,
      "Ġpip": 3325,
      "Ġschools": 3326,
      "ened": 3327,
      "Ġfriend": 3328,
      "Ġtox": 3329,
      "ivil": 3330,
      "NA": 3331,
      "Ġdentist": 3332,
      "making": 3333,
      "Ġstory": 3334,
      "Ġproductivity": 3335,
      "esign": 3336,
      "rection": 3337,
      "Ġaffects": 3338,
      "ternal": 3339,
      "ercial": 3340,
      "Ġartificial": 3341,
      "Ġgenetic": 3342,
      "Ġcred": 3343,
      "Ġoutside": 3344,
      "ĠDo": 3345,
      "Ġthinking": 3346,
      "Ġcode": 3347,
      "Ġintegration": 3348,
      "Ġwebsite": 3349,
      "Ġwat": 3350,
      "Ġroad": 3351,
      "Ġsituation": 3352,
      "Ġenable": 3353,
      "Ġsurv": 3354,
      "Ġiniti": 3355,
      "gest": 3356,
      "Ġgoal": 3357,
      "Ġdriving": 3358,
      "Understanding": 3359,
      "Ġlater": 3360,
      "amet": 3361,
      "Ġcognitive": 3362,
      "Ġidea": 3363,
      "Ġexisting": 3364,
      "Ġobserv": 3365,
      "ĠEduc": 3366,
      "Ġrelevant": 3367,
      "Ġdistribution": 3368,
      "Ġrelax": 3369,
      "Ġinvestment": 3370,
      "ĠAut": 3371,
      "Ġchanging": 3372,
      "ĠKe": 3373,
      "Ġdiagnosis": 3374,
      "Ġprogramm": 3375,
      "Ġplatforms": 3376,
      "ĠPe": 3377,
      "Ġfields": 3378,
      "Ġlines": 3379,
      "ĠAf": 3380,
      "Ġrespond": 3381,
      "Ġsensitive": 3382,
      "Ġdid": 3383,
      "Ġever": 3384,
      "Ġanti": 3385,
      "Ġcyber": 3386,
      "Ġrates": 3387,
      "Ġfresh": 3388,
      "Ġboost": 3389,
      "ender": 3390,
      "Ġimpacts": 3391,
      "Ġpregn": 3392,
      "ison": 3393,
      "Ġcross": 3394,
      "ĠEnglish": 3395,
      "Ġrefers": 3396,
      "Ġinterp": 3397,
      "Ġconver": 3398,
      "Ġpurposes": 3399,
      "verage": 3400,
      "Ġcapabilities": 3401,
      "Ġbul": 3402,
      "Ġversat": 3403,
      "Ġreturn": 3404,
      "Ġbarri": 3405,
      "Ġla": 3406,
      "Ġemissions": 3407,
      "Ġvulner": 3408,
      "Ġqual": 3409,
      "bling": 3410,
      "..": 3411,
      "Ġvehicle": 3412,
      "ird": 3413,
      "vey": 3414,
      "usive": 3415,
      "Ġliter": 3416,
      "Ġchallenge": 3417,
      "Ġmess": 3418,
      "Ġeffectiveness": 3419,
      "Ġcentral": 3420,
      "Ġrelig": 3421,
      "Be": 3422,
      "Ġinstance": 3423,
      "Ġoutd": 3424,
      "que": 3425,
      "Ġgoods": 3426,
      "Ġnote": 3427,
      "ĠUnderstanding": 3428,
      "ĠAct": 3429,
      "odes": 3430,
      "Ġbecoming": 3431,
      "chool": 3432,
      "ades": 3433,
      "Ġvegetables": 3434,
      "Ġaware": 3435,
      "ĠRegular": 3436,
      "Ġprob": 3437,
      "sh": 3438,
      "Ġmechanical": 3439,
      "Ġmemory": 3440,
      "Ġsetting": 3441,
      "lor": 3442,
      "Ġbuildings": 3443,
      "inally": 3444,
      "Ġpotentially": 3445,
      "Ġhar": 3446,
      "Ġamounts": 3447,
      "Ġswe": 3448,
      "ĠMe": 3449,
      "Ġexcessive": 3450,
      "ĠOur": 3451,
      "Ġantib": 3452,
      "Ġadvantage": 3453,
      "raph": 3454,
      "Ġ202": 3455,
      "Ġimplementing": 3456,
      "ream": 3457,
      "Ġsensors": 3458,
      "Ġillness": 3459,
      "Ġsolid": 3460,
      "Imp": 3461,
      "ĠOver": 3462,
      "irm": 3463,
      "Ġhost": 3464,
      "Ġpow": 3465,
      "set": 3466,
      "Ġgradu": 3467,
      "Ġguidance": 3468,
      "Ġpest": 3469,
      "Ġled": 3470,
      "ĠMed": 3471,
      "Ġkids": 3472,
      "Ġoxygen": 3473,
      "Ġrefer": 3474,
      "ĠIndia": 3475,
      "Ġactions": 3476,
      "Ġgenerate": 3477,
      "ground": 3478,
      "ĠOther": 3479,
      "Ġtrends": 3480,
      "Ġmor": 3481,
      "ups": 3482,
      "Ġinstruct": 3483,
      "Ġ201": 3484,
      "Ġapply": 3485,
      "Ġdepression": 3486,
      "Ġbase": 3487,
      "Ġforest": 3488,
      "Ġcity": 3489,
      "Ġpolicies": 3490,
      "Ġlaws": 3491,
      "Ġcycle": 3492,
      "olic": 3493,
      "place": 3494,
      "anks": 3495,
      "Ġcore": 3496,
      "Ġconnected": 3497,
      "ha": 3498,
      "Ġdrive": 3499,
      "Ġupd": 3500,
      "Ġfeet": 3501,
      "ĠDevelop": 3502,
      "Ġelectronic": 3503,
      "Ġtemperatures": 3504,
      "rated": 3505,
      "Ġquestion": 3506,
      "Ġrise": 3507,
      "dom": 3508,
      "ulated": 3509,
      "Ġinject": 3510,
      "Ġperspect": 3511,
      "ĠBl": 3512,
      "Ġplans": 3513,
      "ĠRem": 3514,
      "ĠWhether": 3515,
      "Ġsimply": 3516,
      "ales": 3517,
      "Ġflexibility": 3518,
      "Ġcert": 3519,
      "then": 3520,
      "Ġspaces": 3521,
      "Ġep": 3522,
      "Some": 3523,
      "hemat": 3524,
      "Ġeconomy": 3525,
      "Ġcele": 3526,
      "know": 3527,
      "igation": 3528,
      "Ġsettings": 3529,
      "rome": 3530,
      "Ġrenewable": 3531,
      "Ġeveryone": 3532,
      "Ġinitial": 3533,
      "Ġthus": 3534,
      "Ġbattery": 3535,
      "Ġtable": 3536,
      "Ġbott": 3537,
      "Ġaccessible": 3538,
      "Ġanalyze": 3539,
      "Ġsignificance": 3540,
      "ishing": 3541,
      "Ġfa": 3542,
      "Ġstates": 3543,
      "ĠIts": 3544,
      "Ġcop": 3545,
      "Ġseeds": 3546,
      "Ġnight": 3547,
      "related": 3548,
      "Ġbuilt": 3549,
      "Ġstru": 3550,
      "Ġefficiently": 3551,
      "Ġsearch": 3552,
      "Ġhomes": 3553,
      "Ġregions": 3554,
      "Ġagree": 3555,
      "Ġchain": 3556,
      "ĠDis": 3557,
      "Ġperfect": 3558,
      "Ġintric": 3559,
      "ifying": 3560,
      "Ġcollaboration": 3561,
      "Ġsurrounding": 3562,
      "Ġbrid": 3563,
      "aser": 3564,
      "Ġweek": 3565,
      "itch": 3566,
      "Ġbed": 3567,
      "uild": 3568,
      "Ġfruits": 3569,
      "Ġdeath": 3570,
      "Ġpen": 3571,
      "ires": 3572,
      "Ġdrug": 3573,
      "ĠThrough": 3574,
      "char": 3575,
      "tical": 3576,
      "olar": 3577,
      "Ġconsumers": 3578,
      "Ġfostering": 3579,
      "uge": 3580,
      "ese": 3581,
      "Ġstore": 3582,
      "Ġhim": 3583,
      "omy": 3584,
      "Ġvacc": 3585,
      "Ġdetection": 3586,
      "edu": 3587,
      "Ġast": 3588,
      "Ġrules": 3589,
      "ĠCent": 3590,
      "Ġfertil": 3591,
      "Ġfem": 3592,
      "Ġfaster": 3593,
      "Ġassessment": 3594,
      "Ġconsequences": 3595,
      "ĠAfric": 3596,
      "Ġliquid": 3597,
      "Ġsum": 3598,
      "unction": 3599,
      "Ġdri": 3600,
      "Ġfully": 3601,
      "Ġconsistent": 3602,
      "itual": 3603,
      "iding": 3604,
      "ipe": 3605,
      "Ġprice": 3606,
      "Ġprevious": 3607,
      "olving": 3608,
      "Ġfruit": 3609,
      "Ġthor": 3610,
      "ĠAg": 3611,
      "rew": 3612,
      "Ġmil": 3613,
      "Ġexpand": 3614,
      "Ġhistorical": 3615,
      "Ġdifferences": 3616,
      "Ġdistribut": 3617,
      "Ġemotions": 3618,
      "Ġfiber": 3619,
      "With": 3620,
      "Ġsent": 3621,
      "ĠSa": 3622,
      "Ġspecialized": 3623,
      "rim": 3624,
      "semb": 3625,
      "orth": 3626,
      "Ġtreated": 3627,
      "Ġclos": 3628,
      "Ġaccept": 3629,
      "Ġbond": 3630,
      "Ġunderlying": 3631,
      "Ġpercent": 3632,
      "Ġsection": 3633,
      "Ġtask": 3634,
      "Ġingred": 3635,
      "urren": 3636,
      "Ġfix": 3637,
      "Ġhabits": 3638,
      "Ġtherefore": 3639,
      "loc": 3640,
      "Ġmanufacturers": 3641,
      "Ġsomeone": 3642,
      "Ġfactor": 3643,
      "Ġbalanced": 3644,
      "Ġadminist": 3645,
      "000": 3646,
      "Ġnever": 3647,
      "ĠEach": 3648,
      "ĠCo": 3649,
      "ends": 3650,
      "Ġprinting": 3651,
      "Ġroom": 3652,
      "Ġfrequently": 3653,
      "Ġcit": 3654,
      "Ġembra": 3655,
      "ĠCNC": 3656,
      "Ġsynt": 3657,
      "den": 3658,
      "Ġcommercial": 3659,
      "Ġves": 3660,
      "ĠMost": 3661,
      "ĠOnce": 3662,
      "Ġdoing": 3663,
      "liance": 3664,
      "Ġfamilies": 3665,
      "Ġaddressing": 3666,
      "Ġvitamin": 3667,
      "Ġpict": 3668,
      "Ġexperts": 3669,
      "ength": 3670,
      "ĠWater": 3671,
      "come": 3672,
      "Ġcustomers": 3673,
      "Ġiron": 3674,
      "Ġ7": 3675,
      "Ġstop": 3676,
      "Ġsector": 3677,
      "Ġmolec": 3678,
      "ram": 3679,
      "Ġacademic": 3680,
      "Ġconservation": 3681,
      "flow": 3682,
      "Ġenter": 3683,
      "Ġprivate": 3684,
      "Ġdrugs": 3685,
      "Ġfeature": 3686,
      "Ġdesired": 3687,
      "iddle": 3688,
      "iar": 3689,
      "Ġtherap": 3690,
      "ĠTrans": 3691,
      "ception": 3692,
      "Ġtopic": 3693,
      "Ġexternal": 3694,
      "ellow": 3695,
      "Ġfeedback": 3696,
      "Ġlove": 3697,
      "Ġsave": 3698,
      "giene": 3699,
      "Ġdark": 3700,
      "Ġfair": 3701,
      "ĠX": 3702,
      "eration": 3703,
      "Ġscen": 3704,
      "Ġprefer": 3705,
      "Ġcolors": 3706,
      "Ġinternal": 3707,
      "ĠAc": 3708,
      "Ġapproaches": 3709,
      "Ġbud": 3710,
      "Ġtechnical": 3711,
      "Ġconflic": 3712,
      "Ġcloud": 3713,
      "enefits": 3714,
      "Ġ.": 3715,
      "Ġfront": 3716,
      "Ġplaced": 3717,
      "Ġappearance": 3718,
      "ushing": 3719,
      "Ġrain": 3720,
      "Ġcam": 3721,
      "Ġvent": 3722,
      "arb": 3723,
      "Ġstrugg": 3724,
      "Ġthought": 3725,
      "Ġbreathing": 3726,
      "Ġconven": 3727,
      "Ġassign": 3728,
      "Ġcollection": 3729,
      "Ġpolitical": 3730,
      "Ġleads": 3731,
      "Ġfundamental": 3732,
      "Ġfacilities": 3733,
      "itude": 3734,
      "Ġmotiv": 3735,
      "Ġbodies": 3736,
      "Ġperformed": 3737,
      "Ġcolon": 3738,
      "grad": 3739,
      "ocial": 3740,
      "Ġguidelines": 3741,
      "aster": 3742,
      "Ġthick": 3743,
      "Ġdepends": 3744,
      "Ġadults": 3745,
      "house": 3746,
      "ĠUS": 3747,
      "Ġdetailed": 3748,
      "Ġtim": 3749,
      "istant": 3750,
      "Ġparticles": 3751,
      "aim": 3752,
      "Ġseeking": 3753,
      "Ġupon": 3754,
      "Ġyet": 3755,
      "Ġhor": 3756,
      "nal": 3757,
      "Ġsurfaces": 3758,
      "Ġvessel": 3759,
      "Ġ8": 3760,
      "Ġintegrity": 3761,
      "ech": 3762,
      "ulum": 3763,
      "ĠDuring": 3764,
      "ĠDep": 3765,
      "Ġchoices": 3766,
      "ocurren": 3767,
      "ĠOf": 3768,
      "Ġscale": 3769,
      "Ġrein": 3770,
      "Ġcreative": 3771,
      "Ġinternet": 3772,
      "Ġfoundation": 3773,
      "Ġcloth": 3774,
      "Ġcoord": 3775,
      "Ġdispos": 3776,
      "Ġdirection": 3777,
      "rown": 3778,
      "Ġfinal": 3779,
      "Ġgambling": 3780,
      "Ġremote": 3781,
      "going": 3782,
      "Ġlocated": 3783,
      "head": 3784,
      "Ġsupporting": 3785,
      "Ġkeeping": 3786,
      "Ġoptimize": 3787,
      "Ġsubstances": 3788,
      "Ġeffort": 3789,
      "Ġbox": 3790,
      "Ġadvice": 3791,
      "Ġexact": 3792,
      "Ġplaces": 3793,
      "ipped": 3794,
      "reatment": 3795,
      "Ġadded": 3796,
      "Ġu": 3797,
      "Ġcareer": 3798,
      "Ġcateg": 3799,
      "Ġtrade": 3800,
      "Ġchance": 3801,
      "acing": 3802,
      "ipl": 3803,
      "Ġhol": 3804,
      "lock": 3805,
      "ĠManagement": 3806,
      "rep": 3807,
      "Ġfive": 3808,
      "Ġconvers": 3809,
      "osed": 3810,
      "Ġwinter": 3811,
      "Ġthorough": 3812,
      "Ġhealing": 3813,
      "ĠInt": 3814,
      "Ġang": 3815,
      "Ġcarefully": 3816,
      "Ġagricultural": 3817,
      "app": 3818,
      "Ġmel": 3819,
      "Ġsignal": 3820,
      "ĠQu": 3821,
      "Ġviol": 3822,
      "ifically": 3823,
      "ĠPer": 3824,
      "Ġtick": 3825,
      "Ġrelatively": 3826,
      "Ġsess": 3827,
      "ĠSm": 3828,
      "anging": 3829,
      "Ġrespir": 3830,
      "athy": 3831,
      "Ġstrategy": 3832,
      "ĠMet": 3833,
      "ifications": 3834,
      "Ġnews": 3835,
      "ĠUniversity": 3836,
      "Ġcardi": 3837,
      "Ġmom": 3838,
      "Ġdeliver": 3839,
      "Ġshows": 3840,
      "At": 3841,
      "vant": 3842,
      "Ġtouch": 3843,
      "Ġdisrupt": 3844,
      "Ġnavigate": 3845,
      "hab": 3846,
      "Ġinstead": 3847,
      "Ġgeneration": 3848,
      "arian": 3849,
      "Ġdistinct": 3850,
      "Ġhal": 3851,
      "Ġsav": 3852,
      "Ġdetails": 3853,
      "Ġidentifying": 3854,
      "Ġcircuit": 3855,
      "Ġinteractions": 3856,
      "Ġprevention": 3857,
      "Ġdegree": 3858,
      "Ġadequ": 3859,
      "Ġdangerous": 3860,
      "tage": 3861,
      "Ġattack": 3862,
      "Ġprivacy": 3863,
      "cious": 3864,
      "Ġnoise": 3865,
      "Ġcreation": 3866,
      "asting": 3867,
      "ĠDr": 3868,
      "Ġnational": 3869,
      "ascular": 3870,
      "Ġsqu": 3871,
      "Ġpolicy": 3872,
      "Ġbound": 3873,
      "urally": 3874,
      "ĠNational": 3875,
      "ecause": 3876,
      "Ġmoving": 3877,
      "Ġthing": 3878,
      "Ġfilter": 3879,
      "Ġbad": 3880,
      "Ġprompt": 3881,
      "Ġrelease": 3882,
      "Ġoperating": 3883,
      "eper": 3884,
      "Ġfarmers": 3885,
      "wide": 3886,
      "Ġmobile": 3887,
      "ĠAv": 3888,
      "ypes": 3889,
      "Ġvibr": 3890,
      "Ġplayers": 3891,
      "Ġcivil": 3892,
      "Ġquite": 3893,
      "Ġenhances": 3894,
      "ccording": 3895,
      "Ġfailure": 3896,
      "Ġappe": 3897,
      "Ġsex": 3898,
      "ĠMod": 3899,
      "Ġnerve": 3900,
      "Ġcommunicate": 3901,
      "Ġmechanisms": 3902,
      "Ġstyle": 3903,
      "rought": 3904,
      "cl": 3905,
      "Ġwall": 3906,
      "ulating": 3907,
      "formation": 3908,
      "Ġeco": 3909,
      "Ġlighting": 3910,
      "Ġcultiv": 3911,
      "Ġexperienced": 3912,
      "ĠResearch": 3913,
      "bor": 3914,
      "ls": 3915,
      "Ġthreats": 3916,
      "Ġbuy": 3917,
      "Ġcomfortable": 3918,
      "ĠCO": 3919,
      "Ġhosp": 3920,
      "Ġcomplications": 3921,
      "Ġearth": 3922,
      "Ġexplain": 3923,
      "Ġskill": 3924,
      "Ġhandling": 3925,
      "ED": 3926,
      "ĠHigh": 3927,
      "oT": 3928,
      "Ġcelebr": 3929,
      "Ġseries": 3930,
      "Ġpersonalized": 3931,
      "Ġexec": 3932,
      "Ġaer": 3933,
      "Ġdatab": 3934,
      "ached": 3935,
      "Ġinfluen": 3936,
      "AC": 3937,
      "asive": 3938,
      "Ġnerv": 3939,
      "Ġperiods": 3940,
      "Ġsche": 3941,
      "Ġprovider": 3942,
      "ĠLearning": 3943,
      "ER": 3944,
      "Ġreve": 3945,
      "raft": 3946,
      "Ġbirds": 3947,
      "Ġdiversity": 3948,
      "wise": 3949,
      "imens": 3950,
      "ffee": 3951,
      "orms": 3952,
      "Ġpanels": 3953,
      "Ġbasis": 3954,
      "Ġhous": 3955,
      "Ġdiscomfort": 3956,
      "ĠMon": 3957,
      "ĠThat": 3958,
      "Ġtechnological": 3959,
      "Ġdisplay": 3960,
      "porary": 3961,
      "Ġworksheets": 3962,
      "Ġble": 3963,
      "Ġhygiene": 3964,
      "riculum": 3965,
      "ĠPC": 3966,
      "Ġextensive": 3967,
      "espite": 3968,
      "Ġbelieve": 3969,
      "Ġproviders": 3970,
      "Ġsand": 3971,
      "inder": 3972,
      "Ġstrengthen": 3973,
      "iff": 3974,
      "Ġdurability": 3975,
      "Ġsites": 3976,
      "Ġreality": 3977,
      "erals": 3978,
      "Ġmovements": 3979,
      "Ġcontrolled": 3980,
      "Ġstaff": 3981,
      "Ġconnections": 3982,
      "holders": 3983,
      "Ġdrain": 3984,
      "ĠAre": 3985,
      "iat": 3986,
      "Ġcamp": 3987,
      "Ġflowers": 3988,
      "ĠArt": 3989,
      "Ġirrit": 3990,
      "Ġfriends": 3991,
      "Ġtot": 3992,
      "Ġraw": 3993,
      "Ġcreativity": 3994,
      "Ġoperate": 3995,
      "Ġextract": 3996,
      "Ġelement": 3997,
      "Ġremember": 3998,
      "Ġcompletely": 3999,
      "Ġhelpful": 4000,
      "Ġtraum": 4001,
      "Ġmanner": 4002,
      "Ġreally": 4003,
      "lear": 4004,
      "Ġneuro": 4005,
      "Ġdiv": 4006,
      "Ġgives": 4007,
      "ĠElect": 4008,
      "Ġabilities": 4009,
      "Ġstake": 4010,
      "Ġminutes": 4011,
      "Ġbaby": 4012,
      "Ġcontamin": 4013,
      "na": 4014,
      "Ġexpected": 4015,
      "Ġexposed": 4016,
      "Ġphase": 4017,
      "Ġsay": 4018,
      "Ġusage": 4019,
      "Ġconcrete": 4020,
      "Ġimprovement": 4021,
      "Ġexpertise": 4022,
      "Ġreduction": 4023,
      "Ġagriculture": 4024,
      "ton": 4025,
      "cers": 4026,
      "Ġregarding": 4027,
      "istry": 4028,
      "icip": 4029,
      "Ġanswer": 4030,
      "Ġcats": 4031,
      "Ġbones": 4032,
      "However": 4033,
      "Ġformation": 4034,
      "empt": 4035,
      "Ġmathemat": 4036,
      "Ġcast": 4037,
      "Ġoutput": 4038,
      "ĠAlthough": 4039,
      "Ġrare": 4040,
      "Ġtopics": 4041,
      "dule": 4042,
      "ustain": 4043,
      "Ġtransactions": 4044,
      "Ġacqu": 4045,
      "Ġdeal": 4046,
      "Ġremoved": 4047,
      "oman": 4048,
      "Ġstructural": 4049,
      "mosp": 4050,
      "ĠRep": 4051,
      "Ġconsid": 4052,
      "val": 4053,
      "Ġ18": 4054,
      "Le": 4055,
      "Ġbehaviors": 4056,
      "Ġrecycling": 4057,
      "Ġtransmission": 4058,
      "ĠSim": 4059,
      "Ġweeks": 4060,
      "Ġfunctional": 4061,
      "Ġestablished": 4062,
      "arp": 4063,
      "ritis": 4064,
      "Ġreliability": 4065,
      "Ġfract": 4066,
      "Ġattacks": 4067,
      "Ġwelding": 4068,
      "Is": 4069,
      "eli": 4070,
      "ĠChrist": 4071,
      "Ġcompliance": 4072,
      "ags": 4073,
      "inding": 4074,
      "Ġincorporating": 4075,
      "Ġod": 4076,
      "Ġinput": 4077,
      "Ġboard": 4078,
      "Ġstages": 4079,
      "Ġrobust": 4080,
      "Ġsaid": 4081,
      "Ġchoosing": 4082,
      "Ġfig": 4083,
      "ograph": 4084,
      "Ġcooling": 4085,
      "Ġkidney": 4086,
      "lication": 4087,
      "Ġresilience": 4088,
      "Ġroots": 4089,
      "Ġbreath": 4090,
      "ĠGu": 4091,
      "Ġarm": 4092,
      "idity": 4093,
      "ĠEnviron": 4094,
      "Ġcolle": 4095,
      "Ġfeelings": 4096,
      "Ġrunning": 4097,
      "hel": 4098,
      "Ġinstitutions": 4099,
      "Ġimpl": 4100,
      "Ġsatis": 4101,
      "IS": 4102,
      "Ġcourses": 4103,
      "Ġapprec": 4104,
      "Ġradiation": 4105,
      "Ġsumm": 4106,
      "Ġconstruct": 4107,
      "ĠUsing": 4108,
      "Ġfight": 4109,
      "Ġdamaged": 4110,
      "print": 4111,
      "Ġpiece": 4112,
      "inating": 4113,
      "Ġevolution": 4114,
      "Ġclinical": 4115,
      "Ġwa": 4116,
      "Over": 4117,
      "Ġtransl": 4118,
      "Ġdefin": 4119,
      "Ġfrequency": 4120,
      "Ġafford": 4121,
      "Ġdeeper": 4122,
      "Ġintricate": 4123,
      "iful": 4124,
      "Ġliver": 4125,
      "ĠProt": 4126,
      "Ġabsorb": 4127,
      "Ġscientists": 4128,
      "Ġlength": 4129,
      "Ġongoing": 4130,
      "ĠFirst": 4131,
      "Ġgrass": 4132,
      "Ġprimarily": 4133,
      "Ġelectro": 4134,
      "Ġcomputing": 4135,
      "Ġann": 4136,
      "Ġintake": 4137,
      "mat": 4138,
      "Ġalmost": 4139,
      "urs": 4140,
      "ails": 4141,
      "Ġstable": 4142,
      "Ġpopulations": 4143,
      "Ġshapes": 4144,
      "Ġplaying": 4145,
      "amins": 4146,
      "ĠCommun": 4147,
      "Ġbran": 4148,
      "nee": 4149,
      "Ġcontributing": 4150,
      "Ġclassroom": 4151,
      "Ġbelief": 4152,
      "Ġburn": 4153,
      "Ġtrue": 4154,
      "Ġpage": 4155,
      "ĠDi": 4156,
      "Ġdefic": 4157,
      "ndrome": 4158,
      "Ġcompress": 4159,
      "Ġseem": 4160,
      "Ġinteractive": 4161,
      "ompl": 4162,
      "uck": 4163,
      "zz": 4164,
      "ibly": 4165,
      "AS": 4166,
      "rich": 4167,
      "cription": 4168,
      "gal": 4169,
      "Ġrele": 4170,
      "ĠDesign": 4171,
      "word": 4172,
      "oma": 4173,
      "Ġpieces": 4174,
      "Ġhun": 4175,
      "Why": 4176,
      "Ġexploring": 4177,
      "Ġolder": 4178,
      "xid": 4179,
      "ĠEarth": 4180,
      "Ġdrop": 4181,
      "Ġconfidence": 4182,
      "Ġvirus": 4183,
      "nel": 4184,
      "ĠCal": 4185,
      "Ġremoval": 4186,
      "Ġminerals": 4187,
      "Ġexchange": 4188,
      "ĠEducation": 4189,
      "Ġforward": 4190,
      "Ġroof": 4191,
      "Ġunit": 4192,
      "Ġlotteries": 4193,
      "Ġcreates": 4194,
      "Ġstarting": 4195,
      "Ġassets": 4196,
      "ashion": 4197,
      "Ġatmosp": 4198,
      "Ġnotice": 4199,
      "Ġbackground": 4200,
      "Ġopp": 4201,
      "lets": 4202,
      "Ġblog": 4203,
      "ĠControl": 4204,
      "Ġmount": 4205,
      "Ġwrite": 4206,
      "Ġtro": 4207,
      "Ġjo": 4208,
      "Ġmotion": 4209,
      "Ġinstallation": 4210,
      "paration": 4211,
      "Ġvast": 4212,
      "Ġmetab": 4213,
      "ste": 4214,
      "gy": 4215,
      "Ġresponsibility": 4216,
      "Ġreprodu": 4217,
      "AT": 4218,
      "Ġtransmit": 4219,
      "Ġdynamic": 4220,
      "ĠAlso": 4221,
      "Ġthermal": 4222,
      "Ġresid": 4223,
      "Ġobst": 4224,
      "Ġfine": 4225,
      "Ġserves": 4226,
      "Ġprepared": 4227,
      "Ġsea": 4228,
      "Ġmainly": 4229,
      "Ġassemb": 4230,
      "onom": 4231,
      "Ġaccidents": 4232,
      "Ġexpensive": 4233,
      "Ġbooks": 4234,
      "Ġcryptocurren": 4235,
      "Ġwritten": 4236,
      "Ġtissues": 4237,
      "ĠSk": 4238,
      "Ġcenter": 4239,
      "Ġimag": 4240,
      "Ġhealthier": 4241,
      "oding": 4242,
      "Ġrespiratory": 4243,
      "ames": 4244,
      "anges": 4245,
      "Ġbeauty": 4246,
      "Ġprepare": 4247,
      "Ġaims": 4248,
      "otive": 4249,
      "asts": 4250,
      "Ġgiving": 4251,
      "Ġleave": 4252,
      "Many": 4253,
      "Ġnutrient": 4254,
      "Ġwildlife": 4255,
      "Ġdistance": 4256,
      "Ġstarted": 4257,
      "Ġthin": 4258,
      "Ġoriginal": 4259,
      "ildren": 4260,
      "Ġsummer": 4261,
      "Ġcamer": 4262,
      "Ġspring": 4263,
      "ino": 4264,
      "Ġfeeling": 4265,
      "ogen": 4266,
      "Ġbit": 4267,
      "Ġ15": 4268,
      "ĠSur": 4269,
      "Ġteach": 4270,
      "Ġcoffee": 4271,
      "Ġempower": 4272,
      "Ġshared": 4273,
      "Ġraise": 4274,
      "rum": 4275,
      "ĠUs": 4276,
      "ody": 4277,
      "Ġword": 4278,
      "uminum": 4279,
      "ched": 4280,
      "roid": 4281,
      "Ġheating": 4282,
      "Ġcorros": 4283,
      "Ġfarming": 4284,
      "Comp": 4285,
      "Ġselection": 4286,
      "Ġpromotes": 4287,
      "Ġwalls": 4288,
      "Ġbecame": 4289,
      "Ġimplementation": 4290,
      "face": 4291,
      "Ġsoon": 4292,
      "Ġautism": 4293,
      "Ġtell": 4294,
      "Ġfacilitate": 4295,
      "Ġspect": 4296,
      "Ġframework": 4297,
      "Ġdivid": 4298,
      "Ġthoughts": 4299,
      "ously": 4300,
      "hips": 4301,
      "Ġdeli": 4302,
      "Ġdead": 4303,
      "Ġextremely": 4304,
      "ilitary": 4305,
      "AR": 4306,
      "ĠTechnology": 4307,
      "Ġphen": 4308,
      "Ġinitiatives": 4309,
      "thritis": 4310,
      "Ġimmediately": 4311,
      "Ġmitigate": 4312,
      "ux": 4313,
      "yles": 4314,
      "Ġtum": 4315,
      "Te": 4316,
      "iotics": 4317,
      "Ġcompounds": 4318,
      "ĠStudents": 4319,
      "ES": 4320,
      "Ġrely": 4321,
      "herapy": 4322,
      "taining": 4323,
      "ioxid": 4324,
      "Ġcrops": 4325,
      "Ġprotoc": 4326,
      "Ġdelivery": 4327,
      "Ġchances": 4328,
      "Ġfurn": 4329,
      "Ġvo": 4330,
      "Ġlaser": 4331,
      "Ġball": 4332,
      "Ġpreserv": 4333,
      "ID": 4334,
      "Ġhazard": 4335,
      "igating": 4336,
      "Ġaest": 4337,
      "Ġprotective": 4338,
      "Ġengineers": 4339,
      "Ġjoints": 4340,
      "Ġhyp": 4341,
      "Ġstored": 4342,
      "Ġproteins": 4343,
      "ĠWorld": 4344,
      "Ġdecrease": 4345,
      "Ġmindful": 4346,
      "Ġeggs": 4347,
      "Ġ12": 4348,
      "Ġsignals": 4349,
      "ĠMach": 4350,
      "Ġpu": 4351,
      "Ġgoes": 4352,
      "Ġevaluate": 4353,
      "Ġsurgical": 4354,
      "ĠPeople": 4355,
      "ana": 4356,
      "Ġassistance": 4357,
      "Ġneck": 4358,
      "Ġmath": 4359,
      "Ġdiscover": 4360,
      "Ġped": 4361,
      "ĠConsider": 4362,
      "Ġecosystems": 4363,
      "itivity": 4364,
      "ĠMain": 4365,
      "hest": 4366,
      "ĠNot": 4367,
      "Ġpurs": 4368,
      "Ġtoxic": 4369,
      "Ġaqu": 4370,
      "rid": 4371,
      "omach": 4372,
      "Ġmood": 4373,
      "Ġsequ": 4374,
      "Ġready": 4375,
      "Ġstret": 4376,
      "Ġcitiz": 4377,
      "Ġrelief": 4378,
      "Ġtheory": 4379,
      "Ġsix": 4380,
      "oids": 4381,
      "Ġinsects": 4382,
      "Ġidentified": 4383,
      "Ġmachining": 4384,
      "Ġrecognize": 4385,
      "Ġspecifically": 4386,
      "Ġgovernments": 4387,
      "Ġstraight": 4388,
      "inery": 4389,
      "Ġsupports": 4390,
      "Ġ,": 4391,
      "akers": 4392,
      "Ġconsumer": 4393,
      "Ġscenari": 4394,
      "Ġpreferences": 4395,
      "Ġgenerated": 4396,
      "Ġpartners": 4397,
      "Ġintervention": 4398,
      "Ġseam": 4399,
      "Ġflexible": 4400,
      "Ġingredients": 4401,
      "Ġvoltage": 4402,
      "Ġtea": 4403,
      "Ġlinked": 4404,
      "artment": 4405,
      "craft": 4406,
      "Ġlights": 4407,
      "Ġrecords": 4408,
      "Ġtalk": 4409,
      "Ġconsists": 4410,
      "Ġhyper": 4411,
      "Ġpackaging": 4412,
      "ĠAb": 4413,
      "ĠLet": 4414,
      "Ġadequate": 4415,
      "arant": 4416,
      "Ġrapidly": 4417,
      "Ġoutdoor": 4418,
      "Ġenhanced": 4419,
      "Ġwond": 4420,
      "igue": 4421,
      "oly": 4422,
      "Ġinspect": 4423,
      "Ġprotecting": 4424,
      "Ġcurriculum": 4425,
      "Ġregulatory": 4426,
      "Ġparticipants": 4427,
      "Ġrub": 4428,
      "Ġeverything": 4429,
      "Ġstakeholders": 4430,
      "Ġarchitecture": 4431,
      "sure": 4432,
      "Con": 4433,
      "Ġfasc": 4434,
      "Ġseed": 4435,
      "Ġattempt": 4436,
      "oses": 4437,
      "Ġmilk": 4438,
      "iny": 4439,
      "Ġdou": 4440,
      "Ġelectron": 4441,
      "Ġinstructions": 4442,
      "ĠAmerica": 4443,
      "Ġaccum": 4444,
      "Ġminimizing": 4445,
      "ĠMoreover": 4446,
      "Ġbeautiful": 4447,
      "Ġsubstance": 4448,
      "Ġgums": 4449,
      "Ġath": 4450,
      "Ġcand": 4451,
      "Ġstories": 4452,
      "tered": 4453,
      "Ġincome": 4454,
      "zing": 4455,
      "Ġremed": 4456,
      "guard": 4457,
      "Ġimplications": 4458,
      "ĠFurthermore": 4459,
      "Ġengagement": 4460,
      "Ġexhib": 4461,
      "Ġspot": 4462,
      "Ġ9": 4463,
      "Ġroles": 4464,
      "Ġadding": 4465,
      "EM": 4466,
      "ĠPart": 4467,
      "rees": 4468,
      "Ġblue": 4469,
      "Ġmining": 4470,
      "Ġnative": 4471,
      "where": 4472,
      "Ġrobot": 4473,
      "Ġhearing": 4474,
      "lick": 4475,
      "ĠCare": 4476,
      "Ġfocuses": 4477,
      "ĠHy": 4478,
      "Ġinteraction": 4479,
      "ĠServ": 4480,
      "ĠScience": 4481,
      "ras": 4482,
      "amination": 4483,
      "uilding": 4484,
      "Ġdrinking": 4485,
      "Ġpregnancy": 4486,
      "Ġelev": 4487,
      "Ġmig": 4488,
      "Ġdust": 4489,
      "Ġhazards": 4490,
      "Ġlate": 4491,
      "otal": 4492,
      "Ġcontributes": 4493,
      "Ġisol": 4494,
      "Ġgold": 4495,
      "Ġcities": 4496,
      "Ġworkplace": 4497,
      "Ġworldwide": 4498,
      "PS": 4499,
      "Ġgather": 4500,
      "Ġfile": 4501,
      "weight": 4502,
      "ingu": 4503,
      "Ġkit": 4504,
      "heck": 4505,
      "Ġcou": 4506,
      "Ġcounter": 4507,
      "Ġfocused": 4508,
      "Ġvolume": 4509,
      "Ġschedule": 4510,
      "ĠInter": 4511,
      "apan": 4512,
      "Ġproactive": 4513,
      "ĠBrit": 4514,
      "Ġenvironmentally": 4515,
      "ĠPract": 4516,
      "Ġpests": 4517,
      "Ġdifficulty": 4518,
      "ĠAust": 4519,
      "ĠAnt": 4520,
      "Ġvessels": 4521,
      "icious": 4522,
      "Ġmild": 4523,
      "Ġvitamins": 4524,
      "Ġsupplements": 4525,
      "Ġfing": 4526,
      "ĠPat": 4527,
      "Ġscal": 4528,
      "Ġrock": 4529,
      "Ġlearners": 4530,
      "Ġdigestive": 4531,
      "ferent": 4532,
      "Ġdelve": 4533,
      "Ġbatteries": 4534,
      "Ġabn": 4535,
      "Ġprioritize": 4536,
      "Ġjud": 4537,
      "Ġpeace": 4538,
      "free": 4539,
      "Ġconsidering": 4540,
      "Ġwar": 4541,
      "Ġplanet": 4542,
      "Ġrepe": 4543,
      "eline": 4544,
      "used": 4545,
      "Ġconvent": 4546,
      "ĠSouth": 4547,
      "Ġprogramming": 4548,
      "Ġtotal": 4549,
      "Ġcontrast": 4550,
      "Ke": 4551,
      "lands": 4552,
      "board": 4553,
      "met": 4554,
      "Ġalthough": 4555,
      "Ġdiss": 4556,
      "Ġthrive": 4557,
      "Ġreactions": 4558,
      "Ġincluded": 4559,
      "Ġice": 4560,
      "Ġstomach": 4561,
      "Ġsharing": 4562,
      "Ġoccup": 4563,
      "Ġclaim": 4564,
      "Ġprices": 4565,
      "Ġsymbol": 4566,
      "ught": 4567,
      "Ġreaction": 4568,
      "bre": 4569,
      "Ġmist": 4570,
      "adder": 4571,
      "Ġveter": 4572,
      "Ġvalve": 4573,
      "isp": 4574,
      "teg": 4575,
      "Ġessay": 4576,
      "Ġaccurately": 4577,
      "celer": 4578,
      "Ġmiss": 4579,
      "Ġcalcium": 4580,
      "ley": 4581,
      "ĠIndian": 4582,
      "Ġfinding": 4583,
      "wing": 4584,
      "vantages": 4585,
      "ographic": 4586,
      "ĠMake": 4587,
      "Ġnaturally": 4588,
      "Ġvia": 4589,
      "ĠImpro": 4590,
      "Ġshaping": 4591,
      "Ġparamet": 4592,
      "Ġerrors": 4593,
      "Ġharvest": 4594,
      "Ġclosely": 4595,
      "ĠFe": 4596,
      "Ġowners": 4597,
      "Ġindicate": 4598,
      "Ġfunctioning": 4599,
      "Ġmoment": 4600,
      "Ġimproves": 4601,
      "Ġtailored": 4602,
      "Ġsizes": 4603,
      "Ġorigin": 4604,
      "Ġlatest": 4605,
      "forcement": 4606,
      "Ġclasses": 4607,
      "cyc": 4608,
      "Ġfashion": 4609,
      "Ġplate": 4610,
      "Ġflat": 4611,
      "Ġmagnetic": 4612,
      "Ġhalf": 4613,
      "Pl": 4614,
      "Ġproducing": 4615,
      "Ġswelling": 4616,
      "Ġcommitment": 4617,
      "Ġpal": 4618,
      "ocal": 4619,
      "Ġ200": 4620,
      "Ġgear": 4621,
      "Ġheight": 4622,
      "Ġcars": 4623,
      "dent": 4624,
      "Ġsunlight": 4625,
      "ios": 4626,
      "Ġcultures": 4627,
      "Ġinterpret": 4628,
      "Se": 4629,
      "Ġshift": 4630,
      "Ġmanual": 4631,
      "Ġwalking": 4632,
      "Ġinterventions": 4633,
      "itute": 4634,
      "ials": 4635,
      "iers": 4636,
      "wards": 4637,
      "Ġserver": 4638,
      "ai": 4639,
      "ran": 4640,
      "Ġwet": 4641,
      "Ġyellow": 4642,
      "icles": 4643,
      "Ġachieving": 4644,
      "effective": 4645,
      "ĠOrgan": 4646,
      "rat": 4647,
      "vert": 4648,
      "Ġmetals": 4649,
      "ĠBecause": 4650,
      "Ġcapital": 4651,
      "Ġyield": 4652,
      "oday": 4653,
      "Ġinsurance": 4654,
      "Ġantioxid": 4655,
      "Ġsolve": 4656,
      "Ġparties": 4657,
      "Ġreligious": 4658,
      "ams": 4659,
      "Ġbudget": 4660,
      "Ġthird": 4661,
      ".,": 4662,
      "pec": 4663,
      "More": 4664,
      "Ġask": 4665,
      "Ġlimitations": 4666,
      "Ġfunctionality": 4667,
      "Ġwinning": 4668,
      "Ġstrain": 4669,
      "ias": 4670,
      "Ġauthen": 4671,
      "Ġbirth": 4672,
      "gment": 4673,
      "icing": 4674,
      "Ġgut": 4675,
      "tes": 4676,
      "Ġacids": 4677,
      "'ve": 4678,
      "Ġtreating": 4679,
      "Ġautomation": 4680,
      "ĠProper": 4681,
      "Ġcharacterized": 4682,
      "Ġremoving": 4683,
      "ĠMus": 4684,
      "Ġidentity": 4685,
      "Ġmanag": 4686,
      "ĠEm": 4687,
      "requ": 4688,
      "Ġmedium": 4689,
      "ĠInternet": 4690,
      "ĠAvoid": 4691,
      "onic": 4692,
      "ĠIoT": 4693,
      "Ġcarried": 4694,
      "Ġtight": 4695,
      "Ġsociet": 4696,
      "ĠCho": 4697,
      "Ġcompetitive": 4698,
      "Ġlic": 4699,
      "ister": 4700,
      "Ġmention": 4701,
      "Ġformat": 4702,
      "Ġder": 4703,
      "Ġrecognition": 4704,
      "Ġsalt": 4705,
      "wh": 4706,
      "Ġpossess": 4707,
      "rong": 4708,
      "usiness": 4709,
      "ĠEmp": 4710,
      "ĠGe": 4711,
      "Ġequipped": 4712,
      "iling": 4713,
      "Ġpharm": 4714,
      "ively": 4715,
      "ĠJapan": 4716,
      "urb": 4717,
      "Ġconducted": 4718,
      "Ġtal": 4719,
      "ysical": 4720,
      "Ġconcentration": 4721,
      "Ġinsulation": 4722,
      "Ġaddiction": 4723,
      "Ġmarine": 4724,
      "Ġinvent": 4725,
      "hesis": 4726,
      "ony": 4727,
      "lt": 4728,
      "Ġscan": 4729,
      "umn": 4730,
      "Un": 4731,
      "Ġmilitary": 4732,
      "itor": 4733,
      "ĠNorth": 4734,
      "Ġprol": 4735,
      "Ġcoating": 4736,
      "Ġsold": 4737,
      "cont": 4738,
      "Ġcomputers": 4739,
      "Ġshel": 4740,
      "Ġstatus": 4741,
      "ctu": 4742,
      "Ġupper": 4743,
      "Ġovercome": 4744,
      "Ġfed": 4745,
      "asses": 4746,
      "Ġstone": 4747,
      "ulin": 4748,
      "ymptoms": 4749,
      "cean": 4750,
      "ifferent": 4751,
      "arency": 4752,
      "Ġclothing": 4753,
      "Ġpiv": 4754,
      "ĠWorks": 4755,
      "Ġcomposition": 4756,
      "lers": 4757,
      "ĠIns": 4758,
      "Ġprescrib": 4759,
      "security": 4760,
      "Ġexperiment": 4761,
      "Ġpsychological": 4762,
      "ĠEven": 4763,
      "irect": 4764,
      "Ġconsume": 4765,
      "omb": 4766,
      "edicated": 4767,
      "igital": 4768,
      "rating": 4769,
      "ublic": 4770,
      "Ġpreparation": 4771,
      "Ġbright": 4772,
      "Ġpurchase": 4773,
      "So": 4774,
      "Ġcircum": 4775,
      "ĠWork": 4776,
      "Ġlocations": 4777,
      "Ġgreatly": 4778,
      "isk": 4779,
      "Ġmiddle": 4780,
      "Ġsample": 4781,
      "Here": 4782,
      "Ġspend": 4783,
      "Ġanalyzing": 4784,
      "Ġtransition": 4785,
      "ze": 4786,
      "ologists": 4787,
      "Ġguarant": 4788,
      "Ġcenturies": 4789,
      "Ġmicrob": 4790,
      "Ġhousehold": 4791,
      "ament": 4792,
      "Ġfear": 4793,
      "Ġthous": 4794,
      "Ġaffecting": 4795,
      "Ġ30": 4796,
      "Ġnuc": 4797,
      "ĠKeep": 4798,
      "Ġdevelopers": 4799,
      "Ġhabitat": 4800,
      "Ġslight": 4801,
      "Ġchann": 4802,
      "ĠFl": 4803,
      "ovascular": 4804,
      "Ġfatigue": 4805,
      "Ġinterested": 4806,
      "Ġevaluation": 4807,
      "lines": 4808,
      "Ġhope": 4809,
      "Ġclim": 4810,
      "Ġmachinery": 4811,
      "Ġspeech": 4812,
      "Ġgraph": 4813,
      "Ġforces": 4814,
      "ded": 4815,
      "oga": 4816,
      "Ġversatile": 4817,
      "Ġfertiliz": 4818,
      "Ġultimately": 4819,
      "Ġfoster": 4820,
      "ye": 4821,
      "Ġperman": 4822,
      "Ġdrawing": 4823,
      "Ġavailability": 4824,
      "Ġformed": 4825,
      "aled": 4826,
      "umes": 4827,
      "Ġtrained": 4828,
      "Ġcapable": 4829,
      "ĠFood": 4830,
      "Ġsupplement": 4831,
      "Ġfill": 4832,
      "ĠTest": 4833,
      "Ġcomprom": 4834,
      "alysis": 4835,
      "Ġutilized": 4836,
      "Ġlun": 4837,
      "Ġallev": 4838,
      "ĠShe": 4839,
      "Ġsafely": 4840,
      "ask": 4841,
      "MS": 4842,
      "Ġbow": 4843,
      "oxide": 4844,
      "Ġautomotive": 4845,
      "Ġpick": 4846,
      "Ġdemands": 4847,
      "Ġgenerations": 4848,
      "Ġgrade": 4849,
      "Ġinstruments": 4850,
      "Res": 4851,
      "Ġsimpl": 4852,
      "Ġworth": 4853,
      "Ġintended": 4854,
      "aping": 4855,
      "Ġcareful": 4856,
      "Ġdecay": 4857,
      "Ġallowed": 4858,
      "Ġaudience": 4859,
      "Ġcredit": 4860,
      "Ġpros": 4861,
      "ĠEnergy": 4862,
      "Ġanalytics": 4863,
      "Ġsufficient": 4864,
      "inter": 4865,
      "Ġfrequent": 4866,
      "Ġcorrosion": 4867,
      "Ġmechanism": 4868,
      "lier": 4869,
      "Ġmut": 4870,
      "Comm": 4871,
      "Ġrat": 4872,
      "Ġlessons": 4873,
      "Ġseparate": 4874,
      "ĠPower": 4875,
      "flamm": 4876,
      "Ġhappen": 4877,
      "Ġonto": 4878,
      "Ġhappens": 4879,
      "owered": 4880,
      "ĠRec": 4881,
      "Ġconsiderations": 4882,
      "Ġfiles": 4883,
      "Ġcorrectly": 4884,
      "Ġsavings": 4885,
      "Ġparticipate": 4886,
      "organ": 4887,
      "Ġoperational": 4888,
      "Ġnit": 4889,
      "ula": 4890,
      "Ġmanip": 4891,
      "Ġdisp": 4892,
      "ilation": 4893,
      "Ġexperim": 4894,
      "hemical": 4895,
      "conn": 4896,
      "Ġexamination": 4897,
      "Ġfriendly": 4898,
      "Ġedge": 4899,
      "ĠAustral": 4900,
      "Ġminimal": 4901,
      "Ġmeat": 4902,
      "Ġobjectives": 4903,
      "ned": 4904,
      "Ġunits": 4905,
      "Ġfindings": 4906,
      "ĠDevelopment": 4907,
      "Ġlayers": 4908,
      "PA": 4909,
      "Ġsets": 4910,
      "ormally": 4911,
      "Ġexperiencing": 4912,
      "Ġpipes": 4913,
      "Ġrig": 4914,
      "Ġtrying": 4915,
      "Ġcoun": 4916,
      "Ġvalid": 4917,
      "ĠAdv": 4918,
      "charge": 4919,
      "After": 4920,
      "lean": 4921,
      "Ġimaging": 4922,
      "Ġintegrated": 4923,
      "Ar": 4924,
      "Ġsyndrome": 4925,
      "Ġdietary": 4926,
      "ache": 4927,
      "Ġoffice": 4928,
      "Ġtank": 4929,
      "Ġtour": 4930,
      "Ġbottom": 4931,
      "atural": 4932,
      "inese": 4933,
      "Ġacceler": 4934,
      "ĠSte": 4935,
      "Ġvict": 4936,
      "Ġbarriers": 4937,
      "Ġstri": 4938,
      "ĠSince": 4939,
      "icides": 4940,
      "Ġteacher": 4941,
      "Ġbegins": 4942,
      "acking": 4943,
      "Ġseamless": 4944,
      "Ġbelieved": 4945,
      "ĠAm": 4946,
      "Ġalone": 4947,
      "Ġaluminum": 4948,
      "Ġsafeguard": 4949,
      "Ġinterests": 4950,
      "Ġbiological": 4951,
      "reating": 4952,
      "Ġfocusing": 4953,
      "ĠSafety": 4954,
      "Ġple": 4955,
      "ull": 4956,
      "Ġdurable": 4957,
      "gans": 4958,
      "Reg": 4959,
      "fess": 4960,
      "Ġlost": 4961,
      "ĠSocial": 4962,
      "rene": 4963,
      "Ġprofound": 4964,
      "Ġtrauma": 4965,
      "Ġkn": 4966,
      "Ġeliminate": 4967,
      "Ġgradually": 4968,
      "Ġavoiding": 4969,
      "Ġjobs": 4970,
      "isation": 4971,
      "Ġgreenhouse": 4972,
      "Ġanyone": 4973,
      "Ġdrink": 4974,
      "Ġregulate": 4975,
      "Ġten": 4976,
      "Ġtract": 4977,
      "Ġexploration": 4978,
      "ĠGra": 4979,
      "overed": 4980,
      "Ġteams": 4981,
      "Ġbird": 4982,
      "Ġabnormal": 4983,
      "ĠPers": 4984,
      "ishes": 4985,
      "Ġdedicated": 4986,
      "Ġreven": 4987,
      "raul": 4988,
      "PT": 4989,
      "entral": 4990,
      "ĠSw": 4991,
      "Ġfunds": 4992,
      "enty": 4993,
      "Ġbiod": 4994,
      "Ġsweet": 4995,
      "known": 4996,
      "Ġfinance": 4997,
      "Ġlov": 4998,
      "Ġactively": 4999,
      "Ġreput": 5000,
      "ĠNet": 5001,
      "ortance": 5002,
      "opy": 5003,
      "Ġpossibilities": 5004,
      "oe": 5005,
      "Ġincorporate": 5006,
      "vered": 5007,
      "ĠIndust": 5008,
      "Ġmonth": 5009,
      "Ġbeginning": 5010,
      "med": 5011,
      "Once": 5012,
      "Ġdepth": 5013,
      "Ġbreast": 5014,
      "Ġpivotal": 5015,
      "astics": 5016,
      "OS": 5017,
      "Ġju": 5018,
      "Our": 5019,
      "Ġease": 5020,
      "Ġscrew": 5021,
      "Ġinstalled": 5022,
      "arness": 5023,
      "Ġpopularity": 5024,
      "atically": 5025,
      "cover": 5026,
      "Ġspiritual": 5027,
      "Ġgets": 5028,
      "Ġfootprint": 5029,
      "ball": 5030,
      "ĠGen": 5031,
      "Ġfitness": 5032,
      "solving": 5033,
      "icians": 5034,
      "Ġsurge": 5035,
      "ĠImpact": 5036,
      "ĠMin": 5037,
      "Ġintroduced": 5038,
      "Ġindoor": 5039,
      "Ġinteresting": 5040,
      "Ph": 5041,
      "Ġpipe": 5042,
      "Ġwalk": 5043,
      "Ġentertain": 5044,
      "Ġspinal": 5045,
      "aper": 5046,
      "rape": 5047,
      "Ġmarketing": 5048,
      "Ġmobility": 5049,
      "Ġsuffer": 5050,
      "Ġphenomen": 5051,
      "Ġmic": 5052,
      "rigation": 5053,
      "itting": 5054,
      "efficient": 5055,
      "Ġbrought": 5056,
      "Ġtrain": 5057,
      "De": 5058,
      "Ġfemale": 5059,
      "oh": 5060,
      "Ġcapture": 5061,
      "Ġsed": 5062,
      "Ġexcept": 5063,
      "amed": 5064,
      "Ġmother": 5065,
      "uman": 5066,
      "Ġfamiliar": 5067,
      "ĠProgra": 5068,
      "Ġprotected": 5069,
      "Ġcompar": 5070,
      "Ġeveryday": 5071,
      "Ġesc": 5072,
      "Ġapps": 5073,
      "Ġatmosphere": 5074,
      "Ġrecommendations": 5075,
      "gin": 5076,
      "iences": 5077,
      "Ġdoesn": 5078,
      "ĠEngine": 5079,
      "Ġfilm": 5080,
      "Ġmeals": 5081,
      "ĠProv": 5082,
      "ĠNo": 5083,
      "Ġinjection": 5084,
      "Ġfavor": 5085,
      "Ġartists": 5086,
      "Ġlose": 5087,
      "Ġlever": 5088,
      "Ġactual": 5089,
      "Ġappoint": 5090,
      "ĠOpt": 5091,
      "Ġcere": 5092,
      "AD": 5093,
      "ool": 5094,
      "ĠThen": 5095,
      "Ġhardware": 5096,
      "Ġtoler": 5097,
      "raulic": 5098,
      "ading": 5099,
      "ĠDay": 5100,
      "Ġtoward": 5101,
      "Ġtaste": 5102,
      "Ġstro": 5103,
      "ĠPar": 5104,
      "hma": 5105,
      "Ġpersist": 5106,
      "ĠSupport": 5107,
      "Ġjaw": 5108,
      "Ġcurrently": 5109,
      "Ġprinciple": 5110,
      "Ġleaf": 5111,
      "Ġevolve": 5112,
      "Ġfulf": 5113,
      "Ġkinds": 5114,
      "ĠRedu": 5115,
      "igns": 5116,
      "They": 5117,
      "Ġinfected": 5118,
      "amb": 5119,
      "Ġadvoc": 5120,
      "Ġcombined": 5121,
      "Ġselecting": 5122,
      "Furthermore": 5123,
      "uls": 5124,
      "Ġparameters": 5125,
      "Ġabuse": 5126,
      "Ġcitizens": 5127,
      "Ġconventional": 5128,
      "Ġlegs": 5129,
      "Ġsounds": 5130,
      "Ġaverage": 5131,
      "Ġinclusive": 5132,
      "Ġsensitivity": 5133,
      "Ġpose": 5134,
      "Ġsuffering": 5135,
      "Ġvulnerable": 5136,
      "Ġign": 5137,
      "Ġcopper": 5138,
      "Ġachieved": 5139,
      "Ġcollected": 5140,
      "Ġbelong": 5141,
      "ollow": 5142,
      "Ġcovered": 5143,
      "ĠEuropean": 5144,
      "Ġsessions": 5145,
      "Ġgender": 5146,
      "ifies": 5147,
      "ĠCanad": 5148,
      "unately": 5149,
      "Ġnutritional": 5150,
      "ĠState": 5151,
      "Ġstyles": 5152,
      "AN": 5153,
      "Ġbill": 5154,
      "Ġwithstand": 5155,
      "Ġcardiovascular": 5156,
      "Ġboundaries": 5157,
      "Ġholds": 5158,
      "uality": 5159,
      "Ġdocuments": 5160,
      "Ġmap": 5161,
      "Ġwheel": 5162,
      "ĠProcess": 5163,
      "Ġalloc": 5164,
      "Ġencomp": 5165,
      "Ġcompost": 5166,
      "Ġdatabase": 5167,
      "sts": 5168,
      "Ġbridge": 5169,
      "Ġfollowed": 5170,
      "Ġbiodiversity": 5171,
      "anted": 5172,
      "Ġplayed": 5173,
      "Ġequal": 5174,
      "Ġsectors": 5175,
      "driven": 5176,
      "Ġhon": 5177,
      "loo": 5178,
      "Ġcommunic": 5179,
      "arity": 5180,
      "ĠExper": 5181,
      "Ġclients": 5182,
      "arrow": 5183,
      "yroid": 5184,
      "ĠFin": 5185,
      "Ġutilize": 5186,
      "estern": 5187,
      "orous": 5188,
      "Ġheld": 5189,
      "Ġcoming": 5190,
      "ĠPres": 5191,
      "ĠHist": 5192,
      "Ġadoption": 5193,
      "Ġera": 5194,
      "Ste": 5195,
      "Ġdefect": 5196,
      "aque": 5197,
      "Ġdepos": 5198,
      "ĠKnow": 5199,
      "ommod": 5200,
      "Ġwebsites": 5201,
      "igen": 5202,
      "Ġconscious": 5203,
      "Ġdate": 5204,
      "Ġdebr": 5205,
      "Ġintroduction": 5206,
      "Ġleaders": 5207,
      "Ġbegan": 5208,
      "Ġorgans": 5209,
      "Ġtransparency": 5210,
      "amic": 5211,
      "Ġsem": 5212,
      "Ġmeasurement": 5213,
      "ums": 5214,
      "Ġdefined": 5215,
      "gers": 5216,
      "Ġexpression": 5217,
      "eria": 5218,
      "raction": 5219,
      "Ġexpenses": 5220,
      "Ġexciting": 5221,
      "Ġplanting": 5222,
      "Ġbleeding": 5223,
      "IC": 5224,
      "inations": 5225,
      "Ġphone": 5226,
      "ĠChinese": 5227,
      "Ġpublished": 5228,
      "Ġurine": 5229,
      "Ġstem": 5230,
      "Ġtroub": 5231,
      "Ġcoast": 5232,
      "Ġsud": 5233,
      "Ġthereby": 5234,
      "iology": 5235,
      "ologist": 5236,
      "riction": 5237,
      "Ġcircumst": 5238,
      "ĠAC": 5239,
      "19": 5240,
      "des": 5241,
      "itors": 5242,
      "alleng": 5243,
      "Ġsensor": 5244,
      "Ġgrid": 5245,
      "ustainable": 5246,
      "Ġcash": 5247,
      "ĠDNA": 5248,
      "Ġsubstant": 5249,
      "Ġdiagnost": 5250,
      "Ġevolving": 5251,
      "Ġmos": 5252,
      "Ġinner": 5253,
      "imming": 5254,
      "ctive": 5255,
      "Ġofficial": 5256,
      "Ġlanguages": 5257,
      "Ġsou": 5258,
      "anes": 5259,
      "Ġtube": 5260,
      "Ġencourages": 5261,
      "Ġwaves": 5262,
      "Ġcurren": 5263,
      "ype": 5264,
      "Ġknee": 5265,
      "Ġprocessed": 5266,
      "Ġpicture": 5267,
      "Ġsubjects": 5268,
      "Ġdeploy": 5269,
      "ĠChina": 5270,
      "Ġcharge": 5271,
      "osen": 5272,
      "Ġap": 5273,
      "Ġhydro": 5274,
      "onge": 5275,
      "Ġsudden": 5276,
      "Ġapplying": 5277,
      "Ġperspective": 5278,
      "Cons": 5279,
      "down": 5280,
      "Ġconvenient": 5281,
      "Ġvoice": 5282,
      "Ġacts": 5283,
      "ĠTreatment": 5284,
      "App": 5285,
      "Ġdecor": 5286,
      "Ġlaboratory": 5287,
      "Ġconstantly": 5288,
      "itamin": 5289,
      "ontal": 5290,
      "Ġban": 5291,
      "ĠIm": 5292,
      "Sh": 5293,
      "Ġreports": 5294,
      "erate": 5295,
      "Ġspeak": 5296,
      "bit": 5297,
      "off": 5298,
      "rench": 5299,
      "Ġillust": 5300,
      "Ġleadership": 5301,
      "Ġtun": 5302,
      "rapeut": 5303,
      "Ġinvesting": 5304,
      "bing": 5305,
      "Ġdisposal": 5306,
      "ician": 5307,
      "Ind": 5308,
      "Ġfreed": 5309,
      "arsh": 5310,
      "ĠChildren": 5311,
      "Ġnan": 5312,
      "Ġfeeding": 5313,
      "Ġpollut": 5314,
      "Ġmaximum": 5315,
      "hyd": 5316,
      "Ġcooking": 5317,
      "Ġvisible": 5318,
      "Ġherit": 5319,
      "estic": 5320,
      "brid": 5321,
      "Ġallergies": 5322,
      "Ġreferred": 5323,
      "ira": 5324,
      "Ġharness": 5325,
      "Ġemployed": 5326,
      "Ġsuggests": 5327,
      "fts": 5328,
      "ĠGerm": 5329,
      "ĠDec": 5330,
      "Ġconfig": 5331,
      "Ġeducators": 5332,
      "Ġaids": 5333,
      "right": 5334,
      "Ġestim": 5335,
      "Ġscenarios": 5336,
      "Ġlies": 5337,
      "Additionally": 5338,
      "Ġanything": 5339,
      "ĠPlan": 5340,
      "ĠGod": 5341,
      "Ġseverity": 5342,
      "Ġprevents": 5343,
      "Ġdensity": 5344,
      "Ġaccommod": 5345,
      "letes": 5346,
      "Ġproduces": 5347,
      "cript": 5348,
      "Cont": 5349,
      "ĠEv": 5350,
      "Ġroll": 5351,
      "ĠCommon": 5352,
      "Ġobserved": 5353,
      "Ġfloor": 5354,
      "Ġstain": 5355,
      "olester": 5356,
      "Ġmillion": 5357,
      "iform": 5358,
      "ĠInstead": 5359,
      "Ġsurve": 5360,
      "Ġdesigners": 5361,
      "ders": 5362,
      "Ġecological": 5363,
      "Ġrepresents": 5364,
      "Ġdrivers": 5365,
      "ulf": 5366,
      "cope": 5367,
      "lood": 5368,
      "Ġblocks": 5369,
      "Ġutilizing": 5370,
      "Ġmeditation": 5371,
      "ourage": 5372,
      "pread": 5373,
      "amond": 5374,
      "urch": 5375,
      "Ġpool": 5376,
      "heet": 5377,
      "Ġcart": 5378,
      "Ġunivers": 5379,
      "Ġcovers": 5380,
      "ĠAnother": 5381,
      "Ġresponses": 5382,
      "ipping": 5383,
      "Ġspl": 5384,
      "Ġprotocols": 5385,
      "Ġsort": 5386,
      "olesterol": 5387,
      "uff": 5388,
      "Ġhuge": 5389,
      "quit": 5390,
      "Ġfixed": 5391,
      "apter": 5392,
      "Ġforeign": 5393,
      "ĠMedic": 5394,
      "Ġmulti": 5395,
      "Ġpup": 5396,
      "ided": 5397,
      "Ġpropos": 5398,
      "ĠRel": 5399,
      "Tra": 5400,
      "Ġthread": 5401,
      "Ġsuscept": 5402,
      "Ġdebris": 5403,
      "Ġprem": 5404,
      "Ġdie": 5405,
      "ixt": 5406,
      "Ġregulation": 5407,
      "Ġdynamics": 5408,
      "Ġax": 5409,
      "Ġheritage": 5410,
      "Ġcomplexity": 5411,
      "Ġfoss": 5412,
      "Ġrule": 5413,
      "Ġorganisms": 5414,
      "Ġstrategic": 5415,
      "Ġround": 5416,
      "Ġsafer": 5417,
      "Ġremark": 5418,
      "allenges": 5419,
      "ĠVir": 5420,
      "Ġlibr": 5421,
      "Ġundergo": 5422,
      "Ġswitch": 5423,
      "Ġsharp": 5424,
      "Ġdoctors": 5425,
      "Ġmeaningful": 5426,
      "Ġnose": 5427,
      "vention": 5428,
      "Ġdetermined": 5429,
      "Ġsubstantial": 5430,
      "point": 5431,
      "Ġweakness": 5432,
      "erb": 5433,
      "faction": 5434,
      "Ġextraction": 5435,
      "ymp": 5436,
      "ork": 5437,
      "ceed": 5438,
      "Ġlesson": 5439,
      "cil": 5440,
      "ĠSchool": 5441,
      "Ġargu": 5442,
      "agnetic": 5443,
      "ĠSystems": 5444,
      "Ġpig": 5445,
      "lete": 5446,
      "Ġturb": 5447,
      "Ġtut": 5448,
      "Ġtracking": 5449,
      "Ġster": 5450,
      "Ġimmun": 5451,
      "ĠDet": 5452,
      "Ġirrigation": 5453,
      "oors": 5454,
      "ĠAccording": 5455,
      "Ġstudying": 5456,
      "Ġinnovations": 5457,
      "Ġimplemented": 5458,
      "Ġsecondary": 5459,
      "gets": 5460,
      "ipp": 5461,
      "Ġgrown": 5462,
      "Ġintegral": 5463,
      "ares": 5464,
      "allow": 5465,
      "Ġconsideration": 5466,
      "Ġconvey": 5467,
      "apers": 5468,
      "rief": 5469,
      "Ġeventually": 5470,
      "Ġsod": 5471,
      "Ġflavor": 5472,
      "Ġsamples": 5473,
      "olve": 5474,
      "Ġwors": 5475,
      "hus": 5476,
      "Ġcircumstances": 5477,
      "Ġemerging": 5478,
      "Ġpermanent": 5479,
      "hea": 5480,
      "hav": 5481,
      "abil": 5482,
      "Ġgluc": 5483,
      "Ġaccident": 5484,
      "Ġagreement": 5485,
      "Ġresidents": 5486,
      "Ġencry": 5487,
      "iture": 5488,
      "rick": 5489,
      "Ġenz": 5490,
      "Ġarise": 5491,
      "uits": 5492,
      "Ġradi": 5493,
      "Ġhazardous": 5494,
      "ĠVal": 5495,
      "Ġvibrant": 5496,
      "rapeutic": 5497,
      "Ġsmoke": 5498,
      "During": 5499,
      "Ġcirculation": 5500,
      "Ġexamine": 5501,
      "Ġelectronics": 5502,
      "inated": 5503,
      "Ġextend": 5504,
      "pen": 5505,
      "Ġsan": 5506,
      "ille": 5507,
      "ims": 5508,
      "Your": 5509,
      "Ġcontamination": 5510,
      "Ġtrigger": 5511,
      "Ġsac": 5512,
      "Most": 5513,
      "Ġalternatives": 5514,
      "Ġalleviate": 5515,
      "Pre": 5516,
      "Ġextended": 5517,
      "ĠClass": 5518,
      "Ġstarts": 5519,
      "Ġhormone": 5520,
      "Ġextent": 5521,
      "Ġelse": 5522,
      "Ġrural": 5523,
      "undred": 5524,
      "Ġsupplies": 5525,
      "Ġcontrols": 5526,
      "Ġliterature": 5527,
      "Ġmeal": 5528,
      "Ġhighest": 5529,
      "Ġsmoking": 5530,
      "Ġstrict": 5531,
      "Ġneigh": 5532,
      "Ġsport": 5533,
      "Ġspray": 5534,
      "Ġsupportive": 5535,
      "Ġhospital": 5536,
      "cons": 5537,
      "Ġagents": 5538,
      "ĠAD": 5539,
      "Ġmarkets": 5540,
      "Ġconflict": 5541,
      "rows": 5542,
      "Ġbath": 5543,
      "ĠEnvironmental": 5544,
      "espan": 5545,
      "Ġi": 5546,
      "Ġwealth": 5547,
      "idespread": 5548,
      "ĠPCB": 5549,
      "Ġadverse": 5550,
      "Ġpresents": 5551,
      "Ġfibers": 5552,
      "Ġcoordination": 5553,
      "Can": 5554,
      "Ġportion": 5555,
      "Ġintest": 5556,
      "Ġfascinating": 5557,
      "atial": 5558,
      "Ġgases": 5559,
      "Ġsuccessfully": 5560,
      "Ġdetermining": 5561,
      "Ġclot": 5562,
      "Ġchest": 5563,
      "Ġgained": 5564,
      "ĠCur": 5565,
      "Ġcyl": 5566,
      "Ġindependent": 5567,
      "Ġsell": 5568,
      "ĠHel": 5569,
      "RI": 5570,
      "Ġsched": 5571,
      "vious": 5572,
      "Ġband": 5573,
      "Ġthousands": 5574,
      "Ġcooper": 5575,
      "Ġcholesterol": 5576,
      "Ġbrand": 5577,
      "Ġtickets": 5578,
      "Ġaffordable": 5579,
      "Ġhom": 5580,
      "erior": 5581,
      "itness": 5582,
      "ĠAfrica": 5583,
      "Ġuns": 5584,
      "scale": 5585,
      "Ġoccas": 5586,
      "powered": 5587,
      "Ġgene": 5588,
      "Ġdifficulties": 5589,
      "Ġtargeted": 5590,
      "uct": 5591,
      "Ġdivided": 5592,
      "book": 5593,
      "otic": 5594,
      "Ġassembly": 5595,
      "rations": 5596,
      "Ġbrush": 5597,
      "Ġpreval": 5598,
      "Ġbeliefs": 5599,
      "Ġchick": 5600,
      "ero": 5601,
      "ĠBusiness": 5602,
      "Ġmembr": 5603,
      "Although": 5604,
      "Ġstands": 5605,
      "Ġhabitats": 5606,
      "Ġcombat": 5607,
      "Ġnormally": 5608,
      "neys": 5609,
      "All": 5610,
      "Ġbags": 5611,
      "Ġagencies": 5612,
      "SD": 5613,
      "fficiency": 5614,
      "Ġleak": 5615,
      "ĠMar": 5616,
      "Ġperspectives": 5617,
      "Ġcorpor": 5618,
      "Ġchanged": 5619,
      "Ġprobably": 5620,
      "port": 5621,
      "Ġspine": 5622,
      "airs": 5623,
      "coming": 5624,
      "Ġsusp": 5625,
      "Ġrelaxation": 5626,
      "Ġcompleted": 5627,
      "ĠThus": 5628,
      "alle": 5629,
      "Ġinsulin": 5630,
      "ĠUnlike": 5631,
      "ĠRemember": 5632,
      "Ġtraditions": 5633,
      "ĠBritish": 5634,
      "Ġpun": 5635,
      "idden": 5636,
      "Ġgast": 5637,
      "Ġstones": 5638,
      "ĠSuch": 5639,
      "Ġsyn": 5640,
      "ressing": 5641,
      "Ġradio": 5642,
      "Ġtit": 5643,
      "Ġgar": 5644,
      "Ġlearned": 5645,
      "ĠTem": 5646,
      "Ġminor": 5647,
      "ĠConst": 5648,
      "Ġmer": 5649,
      "ĠAP": 5650,
      "ĠInternational": 5651,
      "Ġpets": 5652,
      "Ġcenters": 5653,
      "Ġopin": 5654,
      "Ġintense": 5655,
      "Ġresistant": 5656,
      "Ġinfluenced": 5657,
      "ta": 5658,
      "Ġrid": 5659,
      "Ġwidespread": 5660,
      "ighter": 5661,
      "iatric": 5662,
      "Ġshowc": 5663,
      "ĠGovern": 5664,
      "Ġpaint": 5665,
      "Ġretain": 5666,
      "ptic": 5667,
      "Ġstick": 5668,
      "Ġrealm": 5669,
      "Ġbrown": 5670,
      "Ġresponsibilities": 5671,
      "Ġselected": 5672,
      "amine": 5673,
      "Ġgaming": 5674,
      "Ġadvent": 5675,
      "Ġhydrogen": 5676,
      "flammatory": 5677,
      "Do": 5678,
      "ĠRole": 5679,
      "Ġinstrument": 5680,
      "):": 5681,
      "Ġtension": 5682,
      "olism": 5683,
      "resp": 5684,
      "fered": 5685,
      "ongevity": 5686,
      "Ġcord": 5687,
      "Ġmanaged": 5688,
      "hydr": 5689,
      "Ġsheet": 5690,
      "Ġov": 5691,
      "Moreover": 5692,
      "inate": 5693,
      "Ġdir": 5694,
      "Ġaccessibility": 5695,
      "Ġmolecules": 5696,
      "oon": 5697,
      "Ġrecover": 5698,
      "ĠAdd": 5699,
      "Ġabund": 5700,
      "ĠGree": 5701,
      "Ġcontainers": 5702,
      "Ġdistributed": 5703,
      "Ġhundred": 5704,
      "icks": 5705,
      "nea": 5706,
      "Ġshed": 5707,
      "ĠAir": 5708,
      "Ġbehaviour": 5709,
      "Ġbank": 5710,
      "ĠFuture": 5711,
      "ĠGener": 5712,
      "iotic": 5713,
      "Ġpreserve": 5714,
      "Ġfaced": 5715,
      "Ġdrainage": 5716,
      "Ġautomated": 5717,
      "Ġdegrees": 5718,
      "iated": 5719,
      "Ġnation": 5720,
      "world": 5721,
      "Ġreplacement": 5722,
      "Ġbarrier": 5723,
      "Ġinstruction": 5724,
      "Ġfo": 5725,
      "rooms": 5726,
      "Ġoils": 5727,
      "ĠWar": 5728,
      "Ġattribut": 5729,
      "Ġerror": 5730,
      "Ġmale": 5731,
      "ĠBoth": 5732,
      "Ġmentioned": 5733,
      "com": 5734,
      "ints": 5735,
      "order": 5736,
      "Cl": 5737,
      "yth": 5738,
      "Ġlung": 5739,
      "Ġprone": 5740,
      "Ġslightly": 5741,
      "uts": 5742,
      "Ġdisturb": 5743,
      "Ġdestro": 5744,
      "Ġpromising": 5745,
      "ĠTake": 5746,
      "ĠCa": 5747,
      "Ġmaximize": 5748,
      "Ġbear": 5749,
      "Ġclearly": 5750,
      "Ġfro": 5751,
      "Ġtap": 5752,
      "Ġenthus": 5753,
      "Ġmajority": 5754,
      "Ġtown": 5755,
      "Ġdial": 5756,
      "ĠCar": 5757,
      "Ġpainting": 5758,
      "ĠAfrican": 5759,
      "rays": 5760,
      "Ġfacing": 5761,
      "Ġmillions": 5762,
      "rates": 5763,
      "Ġjustice": 5764,
      "Ġneut": 5765,
      "ĠBenefits": 5766,
      "ĠUV": 5767,
      "Ġemerged": 5768,
      "Ġaccompl": 5769,
      "Ġinvestors": 5770,
      "Ġunw": 5771,
      "Ġinvolving": 5772,
      "Ġremarkable": 5773,
      "Ġvoc": 5774,
      "ĠBo": 5775,
      "Ġdisabilities": 5776,
      "Ġcompetition": 5777,
      "eling": 5778,
      "Ġidentification": 5779,
      "Ġcourt": 5780,
      "gression": 5781,
      "raw": 5782,
      "Ġquantum": 5783,
      "eed": 5784,
      "Ġlifespan": 5785,
      "Ġconsuming": 5786,
      "Ġsurvival": 5787,
      "Ġpresented": 5788,
      "ĠEast": 5789,
      "Ġdiag": 5790,
      "Ġarticles": 5791,
      "reens": 5792,
      "Ġreward": 5793,
      "Ġfirm": 5794,
      "Benefits": 5795,
      "Ġcontrolling": 5796,
      "Ġfilters": 5797,
      "Ġvideos": 5798,
      "Ġoffered": 5799,
      "Ġhur": 5800,
      "hyth": 5801,
      "Ġloved": 5802,
      "Ġintensity": 5803,
      "Ġmostly": 5804,
      "Ġcook": 5805,
      "IN": 5806,
      "pir": 5807,
      "10": 5808,
      "eter": 5809,
      "ĠBra": 5810,
      "Ġarthritis": 5811,
      "Ġfats": 5812,
      "Ġrecognized": 5813,
      "Ġmeasurements": 5814,
      "ĠVis": 5815,
      "uration": 5816,
      "Ġbacterial": 5817,
      "Ġtoys": 5818,
      "stream": 5819,
      "Ġdecentral": 5820,
      "uous": 5821,
      "uth": 5822,
      "Ġsynthetic": 5823,
      "utical": 5824,
      "ĠInf": 5825,
      "Ġartistic": 5826,
      "rink": 5827,
      "Ġtiny": 5828,
      "Ġocean": 5829,
      "Ġadjustments": 5830,
      "Ġexcl": 5831,
      "Ġdownload": 5832,
      "Ġrequiring": 5833,
      "can": 5834,
      "Ġpowder": 5835,
      "Ġfreedom": 5836,
      "esity": 5837,
      "Ġmac": 5838,
      "mented": 5839,
      "Ġ:": 5840,
      "otherapy": 5841,
      "ĠExp": 5842,
      "ET": 5843,
      "ĠST": 5844,
      "roduction": 5845,
      "Ġexpans": 5846,
      "Ġgrains": 5847,
      "Ġmathematical": 5848,
      "Ġnarrow": 5849,
      "Ġsoph": 5850,
      "Ġlooks": 5851,
      "Ġmixed": 5852,
      "pected": 5853,
      "Ġasthma": 5854,
      "ĠEnc": 5855,
      "Ġaudio": 5856,
      "habilit": 5857,
      "Ġinfest": 5858,
      "Ġmotors": 5859,
      "Ġtransparent": 5860,
      "Ġsatisfaction": 5861,
      "Ġrestrict": 5862,
      "Ġstruggle": 5863,
      "Ġdealing": 5864,
      "ĠSy": 5865,
      "Ġinvestig": 5866,
      "Ġrevenue": 5867,
      "Ġcybersecurity": 5868,
      "conomic": 5869,
      "ĠDise": 5870,
      "Ġtimely": 5871,
      "Ġeros": 5872,
      "Ġhydraulic": 5873,
      "Ġdemonstrate": 5874,
      "Ġglucose": 5875,
      "Ġorth": 5876,
      "Ġentry": 5877,
      "Ġturning": 5878,
      "Ġobtained": 5879,
      "itative": 5880,
      "Ġmessage": 5881,
      "Ġahead": 5882,
      "Ġswit": 5883,
      "Ġmaster": 5884,
      "Ġflav": 5885,
      "ĠProfess": 5886,
      "Ġassessments": 5887,
      "izz": 5888,
      "Ġimmers": 5889,
      "ollabor": 5890,
      "Ġstock": 5891,
      "Ġreaders": 5892,
      "reprene": 5893,
      "Despite": 5894,
      "PR": 5895,
      "Ġkept": 5896,
      "Ġbrings": 5897,
      "ortion": 5898,
      "ĠLearn": 5899,
      "ĠEvery": 5900,
      "ĠFact": 5901,
      "Ġtherapeutic": 5902,
      "Ġthro": 5903,
      "etting": 5904,
      "Ġcharging": 5905,
      "Ġhousing": 5906,
      "Ġleaving": 5907,
      "Overall": 5908,
      "Ġmes": 5909,
      "Ġhumidity": 5910,
      "ĠTime": 5911,
      "Ġsaw": 5912,
      "apes": 5913,
      "Ġlimits": 5914,
      "Ġautomatically": 5915,
      "opl": 5916,
      "Ġmeeting": 5917,
      "Ġslowly": 5918,
      "aceutical": 5919,
      "Inc": 5920,
      "Ġplaque": 5921,
      "Ġsexual": 5922,
      "ilos": 5923,
      "Ġcontem": 5924,
      "Ġstronger": 5925,
      "arbon": 5926,
      "Ġmast": 5927,
      "Ġpainful": 5928,
      "Ġholistic": 5929,
      "isis": 5930,
      "Ġages": 5931,
      "ods": 5932,
      "Ġfever": 5933,
      "Ġraised": 5934,
      "Ġcompact": 5935,
      "abul": 5936,
      "Ġsales": 5937,
      "Ġstaying": 5938,
      "outs": 5939,
      "Ġperforming": 5940,
      "Ġlungs": 5941,
      "iological": 5942,
      "ĠLED": 5943,
      "Ġdesigning": 5944,
      "Ġtrend": 5945,
      "Ġtexture": 5946,
      "Ġbroader": 5947,
      "uing": 5948,
      "Ġantibiotics": 5949,
      "Ġsensory": 5950,
      "Ġversatility": 5951,
      "Ġreported": 5952,
      "ĠOut": 5953,
      "Ġrestore": 5954,
      "reated": 5955,
      "Ġpassed": 5956,
      "Ġlik": 5957,
      "ought": 5958,
      "Ġbroken": 5959,
      "chnology": 5960,
      "Ġdiamond": 5961,
      "rateg": 5962,
      "Ġalter": 5963,
      "Ġincred": 5964,
      "Ġorganized": 5965,
      "greg": 5966,
      "Ġcame": 5967,
      "Ġnuts": 5968,
      "Ġsatell": 5969,
      "pecific": 5970,
      "ON": 5971,
      "uming": 5972,
      "Ġseal": 5973,
      "iter": 5974,
      "Ġallergic": 5975,
      "Ġreference": 5976,
      "rones": 5977,
      "liances": 5978,
      "Ġplease": 5979,
      "ĠCB": 5980,
      "Ġerosion": 5981,
      "Ġcontainer": 5982,
      "wood": 5983,
      "aur": 5984,
      "inflammatory": 5985,
      "Ġarrange": 5986,
      "stone": 5987,
      "Ġmember": 5988,
      "lig": 5989,
      "Ġshoulder": 5990,
      "20": 5991,
      "Ġdut": 5992,
      "roph": 5993,
      "Ġcryptocurrency": 5994,
      "ĠCheck": 5995,
      "Ġimper": 5996,
      "elihood": 5997,
      "iance": 5998,
      "eless": 5999,
      "Ġadvis": 6000,
      "Ġcater": 6001,
      "Ġwrong": 6002,
      "ĠMicro": 6003,
      "licated": 6004,
      "Ġencouraging": 6005,
      "Ġoptimizing": 6006,
      "Ġforming": 6007,
      "Ġworksh": 6008,
      "Ġprolong": 6009,
      "Ġcontinued": 6010,
      "Ġdatas": 6011,
      "Ġcable": 6012,
      "esium": 6013,
      "Ġment": 6014,
      "Before": 6015,
      "ĠCount": 6016,
      "Ġpreventive": 6017,
      "Ġaccomp": 6018,
      "onomous": 6019,
      "eties": 6020,
      "Ġfacts": 6021,
      "Ġopening": 6022,
      "Ġlongevity": 6023,
      "Ġtypical": 6024,
      "Ġmineral": 6025,
      "iced": 6026,
      "ued": 6027,
      "Ġlikelihood": 6028,
      "Ġhoney": 6029,
      "Ġpush": 6030,
      "Ġvariations": 6031,
      "asp": 6032,
      "opic": 6033,
      "Ġabsorption": 6034,
      "thern": 6035,
      "Ġfraud": 6036,
      "indu": 6037,
      "Ġconfirm": 6038,
      "ĠDigital": 6039,
      "Ġspots": 6040,
      "Ġhormones": 6041,
      "Ġexactly": 6042,
      "ĠIP": 6043,
      "ĠMedical": 6044,
      "Ġjournal": 6045,
      "Ġholes": 6046,
      "ĠMat": 6047,
      "Ġdevelopments": 6048,
      "ĠIT": 6049,
      "Ġcollaborative": 6050,
      "ĠIncre": 6051,
      "Ġsch": 6052,
      "Ġjew": 6053,
      "Ġmixt": 6054,
      "ibration": 6055,
      "ĠDifferent": 6056,
      "ymph": 6057,
      "ady": 6058,
      "ocks": 6059,
      "ĠRo": 6060,
      "Ġpreviously": 6061,
      "lder": 6062,
      "au": 6063,
      "Ġroads": 6064,
      "rie": 6065,
      "Ġathletes": 6066,
      "Ġoste": 6067,
      "Ġotherwise": 6068,
      "Ġbranches": 6069,
      "Ġgap": 6070,
      "Ġmanif": 6071,
      "amps": 6072,
      "Ġcampa": 6073,
      "function": 6074,
      "Ġlistening": 6075,
      "Ġadvert": 6076,
      "Ġcontinuously": 6077,
      "isl": 6078,
      "ĠMay": 6079,
      "Ġchart": 6080,
      "acters": 6081,
      "Ġstimul": 6082,
      "Ġembracing": 6083,
      "Ġhoriz": 6084,
      "Ġchosen": 6085,
      "Ġentertainment": 6086,
      "Ġcos": 6087,
      "osph": 6088,
      "working": 6089,
      "Ġrecycled": 6090,
      "Ġstroke": 6091,
      "opping": 6092,
      "Ġattached": 6093,
      "Ġfest": 6094,
      "ĠStart": 6095,
      "ĠTraining": 6096,
      "Ġpreserving": 6097,
      "Ġcanal": 6098,
      "ĠBal": 6099,
      "uter": 6100,
      "ĠEnh": 6101,
      "Ġmeasuring": 6102,
      "Ġfilled": 6103,
      "Ġgall": 6104,
      "amples": 6105,
      "rance": 6106,
      "ĠNow": 6107,
      "Ġfossil": 6108,
      "Ġdisad": 6109,
      "Ġwellness": 6110,
      "Ġlosses": 6111,
      "Ġventilation": 6112,
      "Ġsen": 6113,
      "...": 6114,
      "Ġprofit": 6115,
      "Ġcryst": 6116,
      "everal": 6117,
      "Ġconsistency": 6118,
      "los": 6119,
      "chers": 6120,
      "oster": 6121,
      "riting": 6122,
      "Ġfault": 6123,
      "Ġwindows": 6124,
      "Ġauthorities": 6125,
      "uk": 6126,
      "Ġaccounts": 6127,
      "Ġdeficiency": 6128,
      "Ġapart": 6129,
      "Ġpel": 6130,
      "Ġperce": 6131,
      "mic": 6132,
      "earing": 6133,
      "ĠSecurity": 6134,
      "aying": 6135,
      "Ġviruses": 6136,
      "Ġfluctu": 6137,
      "Ġstructured": 6138,
      "Ġcolumn": 6139,
      "Ġnovel": 6140,
      "Ġcontaining": 6141,
      "pat": 6142,
      "inent": 6143,
      "Ġyoga": 6144,
      "Ġunderst": 6145,
      "ashing": 6146,
      "Ġrelieve": 6147,
      "Ġaddressed": 6148,
      "ĠAtt": 6149,
      "Ġprescribed": 6150,
      "Ġdiagnostic": 6151,
      "Ġexplores": 6152,
      "Ġplenty": 6153,
      "irus": 6154,
      "Ġreleased": 6155,
      "erts": 6156,
      "Ġdimens": 6157,
      "assium": 6158,
      "Ġnervous": 6159,
      "ndom": 6160,
      "Ġprize": 6161,
      "Ġexpectations": 6162,
      "ĠAnalysis": 6163,
      "Ġgeomet": 6164,
      "Ġhorse": 6165,
      "Ġwatch": 6166,
      "Ġadministr": 6167,
      "orial": 6168,
      "Ġparas": 6169,
      "Ġfrag": 6170,
      "Ġtransformation": 6171,
      "Ġsuperv": 6172,
      "Ġcompat": 6173,
      "Ġoverw": 6174,
      "Ġsusceptible": 6175,
      "Ġdiagnosed": 6176,
      "reate": 6177,
      "Ġmosquit": 6178,
      "Ġdischarge": 6179,
      "ĠFinally": 6180,
      "neum": 6181,
      "Ġimprovements": 6182,
      "rust": 6183,
      "rowing": 6184,
      "ĠStudies": 6185,
      "Ġobstac": 6186,
      "Ġappliances": 6187,
      "ĠPain": 6188,
      "Ġspeaking": 6189,
      "Ġbutter": 6190,
      "Ġbreaks": 6191,
      "Ġblow": 6192,
      "igenous": 6193,
      "Ġwave": 6194,
      "elt": 6195,
      "Ġchlor": 6196,
      "Ġemployment": 6197,
      "Ġbehavioral": 6198,
      "Ġcollege": 6199,
      "Ġpreca": 6200,
      "ustion": 6201,
      "state": 6202,
      "Ġnotes": 6203,
      "Ġmindfulness": 6204,
      "Ġfort": 6205,
      "level": 6206,
      "ĠInteg": 6207,
      "Ġkitc": 6208,
      "Ġfer": 6209,
      "Ġtested": 6210,
      "Ġcharacters": 6211,
      "ĠTherapy": 6212,
      "Ġobjective": 6213,
      "stru": 6214,
      "ptom": 6215,
      "Ġrandom": 6216,
      "Ġsummary": 6217,
      "Ġdescribe": 6218,
      "PE": 6219,
      "Ġexecut": 6220,
      "connected": 6221,
      "Rem": 6222,
      "Ġriver": 6223,
      "osition": 6224,
      "Ġappears": 6225,
      "Ġmanagers": 6226,
      "ĠRed": 6227,
      "Ġcham": 6228,
      "Ġcraft": 6229,
      "Ġfederal": 6230,
      "habilitation": 6231,
      "udd": 6232,
      "ror": 6233,
      "Ġcavity": 6234,
      "Ġpair": 6235,
      "Ġcopy": 6236,
      "Ġcandid": 6237,
      "Ġbreaking": 6238,
      "anguage": 6239,
      "ĠStand": 6240,
      "Ġdiagnose": 6241,
      "Ġduration": 6242,
      "AM": 6243,
      "Ġunp": 6244,
      "Ġli": 6245,
      "Ġkill": 6246,
      "Ġdigestion": 6247,
      "Ġspending": 6248,
      "Ġmatch": 6249,
      "ĠSub": 6250,
      "Ġstabil": 6251,
      "ĠOff": 6252,
      "ĠGreen": 6253,
      "Ġreserv": 6254,
      "Ġadopting": 6255,
      "Ġdescribed": 6256,
      "ruption": 6257,
      "Ġfewer": 6258,
      "abulary": 6259,
      "Ġsaving": 6260,
      "hern": 6261,
      "Ġclosed": 6262,
      "Ġlargest": 6263,
      "ĠToday": 6264,
      "Ġinhib": 6265,
      "udes": 6266,
      "Ġfuels": 6267,
      "Ġleveraging": 6268,
      "ellect": 6269,
      "Ġdecades": 6270,
      "gypt": 6271,
      "Pe": 6272,
      "Ġlightweight": 6273,
      "Ġsuit": 6274,
      "Ġcoverage": 6275,
      "Ġ0": 6276,
      "Ġharsh": 6277,
      "Ġoptical": 6278,
      "Ġdelicate": 6279,
      "att": 6280,
      "leg": 6281,
      "Ġhole": 6282,
      "ĠCor": 6283,
      "itoring": 6284,
      "ophy": 6285,
      "ossible": 6286,
      "Ġtook": 6287,
      "uum": 6288,
      "Ġsurvey": 6289,
      "Ġversion": 6290,
      "Ġdegrad": 6291,
      "Ġcolour": 6292,
      "Ġrevolutionized": 6293,
      "sp": 6294,
      "Ġguarantee": 6295,
      "ospace": 6296,
      "Ġreceived": 6297,
      "Ġdrinks": 6298,
      "Ġsilic": 6299,
      "Ġasset": 6300,
      "Use": 6301,
      "ogle": 6302,
      "ĠTw": 6303,
      "Ġearlier": 6304,
      "Ġlinks": 6305,
      "etics": 6306,
      "Ġstar": 6307,
      "Ġownership": 6308,
      "Ġvolun": 6309,
      "Ġposture": 6310,
      "ĠpH": 6311,
      "Ġbladder": 6312,
      "Ġdriver": 6313,
      "Ġpracticing": 6314,
      "Ġfluids": 6315,
      "Ġru": 6316,
      "ĠAccess": 6317,
      "Ġtear": 6318,
      "ĠUK": 6319,
      "Ġnarr": 6320,
      "words": 6321,
      "ĠDental": 6322,
      "Ġoxid": 6323,
      "Ġwearing": 6324,
      "apor": 6325,
      "phones": 6326,
      "Ġ17": 6327,
      "Ġevolved": 6328,
      "Ġinspection": 6329,
      "Sc": 6330,
      "Ġsides": 6331,
      "Ġdiscussion": 6332,
      "Ġpreparing": 6333,
      "Ġadhes": 6334,
      "ĠBlack": 6335,
      "ifts": 6336,
      "coin": 6337,
      "herent": 6338,
      "Ġcrim": 6339,
      "Ġmanufacturer": 6340,
      "Ġwitness": 6341,
      "Ġuniform": 6342,
      "Ġbreed": 6343,
      "Ġimbal": 6344,
      "bra": 6345,
      "sor": 6346,
      "Ġdoor": 6347,
      "Ġcond": 6348,
      "Ġtemporary": 6349,
      "isticated": 6350,
      "Ġmeets": 6351,
      "Ġherb": 6352,
      "Ġdys": 6353,
      "Ġdioxide": 6354,
      "Ġregardless": 6355,
      "Ġdistingu": 6356,
      "Ġmeasured": 6357,
      "Ġpanel": 6358,
      "ĠIntellig": 6359,
      "amel": 6360,
      "Ġisn": 6361,
      "Ġwindow": 6362,
      "ĠAutom": 6363,
      "ĠAustralia": 6364,
      "Ġindependence": 6365,
      "arks": 6366,
      "Ġresolution": 6367,
      "ĠMy": 6368,
      "ĠJust": 6369,
      "II": 6370,
      "Ġvarieties": 6371,
      "Ġdouble": 6372,
      "ressure": 6373,
      "Ġdomestic": 6374,
      "50": 6375,
      "Ġinsert": 6376,
      "Ġillnesses": 6377,
      "Ġcamera": 6378,
      "elry": 6379,
      "Ġflower": 6380,
      "Ġcalm": 6381,
      "Ġforests": 6382,
      "Ġnerves": 6383,
      "Ġstores": 6384,
      "ĠCult": 6385,
      "Ġburning": 6386,
      "Ġservers": 6387,
      "Ġgenes": 6388,
      "Ġshell": 6389,
      "Ġantioxidants": 6390,
      "asters": 6391,
      "ĠInvest": 6392,
      "Ġcarbo": 6393,
      "haps": 6394,
      "Ġbot": 6395,
      "Ġpumps": 6396,
      "ĠAny": 6397,
      "ĠPlant": 6398,
      "rus": 6399,
      "Ġdecide": 6400,
      "Ġintroduce": 6401,
      "Ġvertical": 6402,
      "best": 6403,
      "lar": 6404,
      "istical": 6405,
      "assion": 6406,
      "Su": 6407,
      "ressive": 6408,
      "Ġsupported": 6409,
      "lockchain": 6410,
      "bl": 6411,
      "EN": 6412,
      "lore": 6413,
      "ĠHer": 6414,
      "Ġattractive": 6415,
      "xy": 6416,
      "atch": 6417,
      "enn": 6418,
      "Ġaimed": 6419,
      "ĠChar": 6420,
      "Ġdiscovery": 6421,
      "Ġemployee": 6422,
      "respond": 6423,
      "Ġfunding": 6424,
      "Ġsurvive": 6425,
      "owners": 6426,
      "Ġencounter": 6427,
      "pie": 6428,
      "Ġranging": 6429,
      "Ġproven": 6430,
      "Ġrecip": 6431,
      "Ġdesp": 6432,
      "Ġviolence": 6433,
      "utrition": 6434,
      "Ġattach": 6435,
      "Int": 6436,
      "Ġdriven": 6437,
      "Ġrubber": 6438,
      "asal": 6439,
      "ĠDespite": 6440,
      "Ġarms": 6441,
      "Ġdiscovered": 6442,
      "Ġreplaced": 6443,
      "Ġcontaminants": 6444,
      "Ġwonder": 6445,
      "Ġsophisticated": 6446,
      "Ġbreeding": 6447,
      "ĠCost": 6448,
      "yal": 6449,
      "orthern": 6450,
      "Ġembrace": 6451,
      "ĠMaterial": 6452,
      "Ġcrisis": 6453,
      "Ġgardening": 6454,
      "Ġconducting": 6455,
      "Ġformal": 6456,
      "Ġx": 6457,
      "Ġdiarr": 6458,
      "ga": 6459,
      "ĠClean": 6460,
      "ĠDepartment": 6461,
      "Key": 6462,
      "Ġsmell": 6463,
      "ĠWeb": 6464,
      "Ġ$": 6465,
      "emia": 6466,
      "Ġtrib": 6467,
      "Ġconflicts": 6468,
      "Ġfollows": 6469,
      "ĠIdent": 6470,
      "BA": 6471,
      "Ġrequest": 6472,
      "Ġtransforming": 6473,
      "Ġpace": 6474,
      "ĠGl": 6475,
      "Stud": 6476,
      "Ġpollutants": 6477,
      "ket": 6478,
      "Ġnest": 6479,
      "Ġwhose": 6480,
      "Ġsett": 6481,
      "Ġ100": 6482,
      "Ġpossibility": 6483,
      "Ġparticipation": 6484,
      "Ġsnow": 6485,
      "Ġpreservation": 6486,
      "Ġenthusi": 6487,
      "Ġdecentralized": 6488,
      "Ġcontracts": 6489,
      "proof": 6490,
      "Ġexpansion": 6491,
      "Ġ16": 6492,
      "Ġvalves": 6493,
      "Ġdiscussed": 6494,
      "Regular": 6495,
      "Ġspecialist": 6496,
      "Ġintegrating": 6497,
      "Ġfatty": 6498,
      "ogs": 6499,
      "ĠEgypt": 6500,
      "Ġarray": 6501,
      "Ġemail": 6502,
      "Ġstanding": 6503,
      "Ġ50": 6504,
      "Ġbrushing": 6505,
      "ĠOnline": 6506,
      "Ġrobots": 6507,
      "Ġpositions": 6508,
      "Ġgardens": 6509,
      "Ġimplant": 6510,
      "ek": 6511,
      "oting": 6512,
      "Ġloads": 6513,
      "Ġaccounting": 6514,
      "Ġadvances": 6515,
      "Ġconsumed": 6516,
      "Ġheadaches": 6517,
      "author": 6518,
      "Ġsections": 6519,
      "Ġinterface": 6520,
      "Ġchildhood": 6521,
      "airy": 6522,
      "Ġmedicines": 6523,
      "Ġfigure": 6524,
      "Ġfinger": 6525,
      "Ġhelped": 6526,
      "Ġaging": 6527,
      "Ġfosters": 6528,
      "Ġspectrum": 6529,
      "Ġsick": 6530,
      "Ġrice": 6531,
      "ĠInformation": 6532,
      "ĠImportance": 6533,
      "Ġmid": 6534,
      "Ġrecently": 6535,
      "Ġadvancement": 6536,
      "OR": 6537,
      "ĠBet": 6538,
      "Ġpoison": 6539,
      "ĠProject": 6540,
      "Ġangle": 6541,
      "ĠCanada": 6542,
      "Ġamb": 6543,
      "Ġdefine": 6544,
      "Sp": 6545,
      "Ġthyroid": 6546,
      "Ġoverview": 6547,
      "Ġinsight": 6548,
      "ĠDef": 6549,
      "Ġmultip": 6550,
      "havior": 6551,
      "Ġspatial": 6552,
      "amount": 6553,
      "Ġreporting": 6554,
      "asure": 6555,
      "osc": 6556,
      "Ġrepet": 6557,
      "Ġwound": 6558,
      "ĠQuality": 6559,
      "Ġcaptiv": 6560,
      "Ġaesthetic": 6561,
      "lectric": 6562,
      "Ġinvestments": 6563,
      "Ġconcerned": 6564,
      "Ġhidden": 6565,
      "Ġexha": 6566,
      "Ġasked": 6567,
      "Ġdecline": 6568,
      "Ġlots": 6569,
      "Ġdefects": 6570,
      "cture": 6571,
      "Ġinfluences": 6572,
      "Ġpand": 6573,
      "Ġphilos": 6574,
      "Ġpayment": 6575,
      "Ġresidential": 6576,
      "Ġoverwhel": 6577,
      "Ġpages": 6578,
      "ĠEd": 6579,
      "Ġuncertain": 6580,
      "Ġcrown": 6581,
      "Ġparty": 6582,
      "Ġarts": 6583,
      "arket": 6584,
      "Ġbiom": 6585,
      "ĠWell": 6586,
      "Ġdoors": 6587,
      "Ġinterior": 6588,
      "Ġobesity": 6589,
      "plant": 6590,
      "ĠMachine": 6591,
      "Ġfriction": 6592,
      "Ġearn": 6593,
      "Ġpharmaceutical": 6594,
      "ented": 6595,
      "ĠExt": 6596,
      "otton": 6597,
      "Ġunf": 6598,
      "Ġentreprene": 6599,
      "Ġterrit": 6600,
      "Step": 6601,
      "Ġempathy": 6602,
      "Ġtruly": 6603,
      "umbing": 6604,
      "Ġunable": 6605,
      "Ġdefense": 6606,
      "ispens": 6607,
      "Are": 6608,
      "rab": 6609,
      "Ġsubsequ": 6610,
      "Ġappeal": 6611,
      "Ġwon": 6612,
      "Ġmolding": 6613,
      "Finally": 6614,
      "Ġsend": 6615,
      "Ġfurniture": 6616,
      "ĠSol": 6617,
      "ns": 6618,
      "ĠEqu": 6619,
      "Ġdisaster": 6620,
      "ĠVitamin": 6621,
      "Ġraising": 6622,
      "Ġcorrespond": 6623,
      "Ġtherapies": 6624,
      "Ġpreferred": 6625,
      "Ġfinish": 6626,
      "Ġconvenience": 6627,
      "ĠPark": 6628,
      "gener": 6629,
      "Using": 6630,
      "duction": 6631,
      "ĠFrench": 6632,
      "Ġveterin": 6633,
      "Ġhem": 6634,
      "Ġneural": 6635,
      "Ġjack": 6636,
      "Ġindispens": 6637,
      "Ġdiscussions": 6638,
      "EC": 6639,
      "stic": 6640,
      "Ġcareg": 6641,
      "Ġexperiments": 6642,
      "Ġhappy": 6643,
      "inant": 6644,
      "oral": 6645,
      "Ġfalls": 6646,
      "Ġchrom": 6647,
      "Ġrepeated": 6648,
      "Ġplastics": 6649,
      "Ġminimum": 6650,
      "Ġmetabolism": 6651,
      "itals": 6652,
      "Ġparamount": 6653,
      "Data": 6654,
      "Ġlens": 6655,
      "ava": 6656,
      "Ġmessages": 6657,
      "But": 6658,
      "Ġyouth": 6659,
      "ĠMult": 6660,
      "Ġinvasive": 6661,
      "lobal": 6662,
      "acet": 6663,
      "Ġfloss": 6664,
      "Ġindispensable": 6665,
      "IT": 6666,
      "Ġmorning": 6667,
      "Ġmoves": 6668,
      "HD": 6669,
      "health": 6670,
      "using": 6671,
      "Ġrecorded": 6672,
      "Ġpenet": 6673,
      "Ġalike": 6674,
      "Ġseems": 6675,
      "Ġskilled": 6676,
      "Ġauthentic": 6677,
      "Ġshowing": 6678,
      "bestos": 6679,
      "Ġrefrig": 6680,
      "ocol": 6681,
      "Ġcreatures": 6682,
      "Ġstimulate": 6683,
      "Ġtriggers": 6684,
      "Ġcurrency": 6685,
      "Ġunders": 6686,
      "eries": 6687,
      "Ġcriminal": 6688,
      "Ġpersonnel": 6689,
      "itution": 6690,
      "edge": 6691,
      "mentation": 6692,
      "Ġcav": 6693,
      "Ġcriteria": 6694,
      "Ġrepairs": 6695,
      "SS": 6696,
      "formance": 6697,
      "Ġinfect": 6698,
      "Ġpuzz": 6699,
      "Ġcables": 6700,
      "ĠSymptoms": 6701,
      "ĠDist": 6702,
      "Ġshaped": 6703,
      "ĠEarly": 6704,
      "ĠSecond": 6705,
      "Cho": 6706,
      "Ġdebt": 6707,
      "Ġthroat": 6708,
      "Ġtor": 6709,
      "Types": 6710,
      "Ġrace": 6711,
      "Ġinstant": 6712,
      "Ġmotivation": 6713,
      "Ġphenomenon": 6714,
      "Ġago": 6715,
      "Ġaircraft": 6716,
      "ĠBas": 6717,
      "Ġfacility": 6718,
      "Ġvocabulary": 6719,
      "col": 6720,
      "Ġpictures": 6721,
      "ubric": 6722,
      "Ġfacilitating": 6723,
      "Ġcul": 6724,
      "Ġvom": 6725,
      "Ġvariables": 6726,
      "Art": 6727,
      "unk": 6728,
      "Ġlegisl": 6729,
      "Ġaddresses": 6730,
      "Ġengines": 6731,
      "Ġregional": 6732,
      "Ġforec": 6733,
      "Ġinspire": 6734,
      "Ġnurt": 6735,
      "Ġnitrogen": 6736,
      "ev": 6737,
      "peed": 6738,
      "ĠPhysical": 6739,
      "ĠAssoci": 6740,
      "atin": 6741,
      "Ġcostly": 6742,
      "Ġrestoration": 6743,
      "Ġstatement": 6744,
      "Ġrhyth": 6745,
      "Ġcompound": 6746,
      "Ġtaught": 6747,
      "Ġclient": 6748,
      "Ġfertility": 6749,
      "Ġspo": 6750,
      "Ġmissing": 6751,
      "Ġmort": 6752,
      "Ġstation": 6753,
      "Ġbio": 6754,
      "Ġdestroy": 6755,
      "ellectual": 6756,
      "Ġelectrom": 6757,
      "ĠChoose": 6758,
      "Ġcontemporary": 6759,
      "rasound": 6760,
      "obile": 6761,
      "Ġcollective": 6762,
      "Ġvarying": 6763,
      "Ġnuclear": 6764,
      "Other": 6765,
      "Ġworse": 6766,
      "ividuals": 6767,
      "Ġcorner": 6768,
      "Ġdecreased": 6769,
      "ĠSustainable": 6770,
      "Ġdrying": 6771,
      "ĠHome": 6772,
      "fortunately": 6773,
      "Ġcloser": 6774,
      "backs": 6775,
      "rons": 6776,
      "Ġshield": 6777,
      "Ġouter": 6778,
      "Ġmodeling": 6779,
      "Ġestablishing": 6780,
      "Ġanswers": 6781,
      "Ġupdates": 6782,
      "Yes": 6783,
      "Ġcompression": 6784,
      "Ġscreening": 6785,
      "Ġcategories": 6786,
      "Ġreb": 6787,
      "Ġdisin": 6788,
      "ĠWithout": 6789,
      "ĠSimilar": 6790,
      "Main": 6791,
      "Ġoperators": 6792,
      "ĠWorksheets": 6793,
      "ĠLaw": 6794,
      "Ġoutcome": 6795,
      "ĠInstitute": 6796,
      "organisms": 6797,
      "According": 6798,
      "ĠEss": 6799,
      "ĠHuman": 6800,
      "Ġmode": 6801,
      "Ġobserve": 6802,
      "Ġduct": 6803,
      "ĠKing": 6804,
      "Ġmixture": 6805,
      "Ġhip": 6806,
      "Ġacknow": 6807,
      "Ġdemoc": 6808,
      "rimination": 6809,
      "Ġthoroughly": 6810,
      "ĠBi": 6811,
      "aped": 6812,
      "Impro": 6813,
      "ĠSolar": 6814,
      "Ġtransaction": 6815,
      "icide": 6816,
      "VID": 6817,
      "Ġring": 6818,
      "ĠRoman": 6819,
      "Ġbridges": 6820,
      "oli": 6821,
      "ĠCenter": 6822,
      "Ġcompens": 6823,
      "Ġvegetation": 6824,
      "Ġapprox": 6825,
      "Ġfamous": 6826,
      "Ġ199": 6827,
      "ĠManufact": 6828,
      "Ġintelligent": 6829,
      "Ġlinear": 6830,
      "Ġarchitectural": 6831,
      "ĠDue": 6832,
      "Ġbees": 6833,
      "Ġsecret": 6834,
      "Ġremedies": 6835,
      "Ġstring": 6836,
      "Ġcalories": 6837,
      "Ġvisitors": 6838,
      "Ġdow": 6839,
      "Ġmaps": 6840,
      "Ġtradition": 6841,
      "Ġunauthor": 6842,
      "ĠJapanese": 6843,
      "hydrates": 6844,
      "ws": 6845,
      "Ġtri": 6846,
      "Ġgrows": 6847,
      "Ġrepresentation": 6848,
      "uis": 6849,
      "iors": 6850,
      "Ġpin": 6851,
      "Ġben": 6852,
      "Ġsug": 6853,
      "Ġappointment": 6854,
      "Ġoptimization": 6855,
      "Ġderived": 6856,
      "Ġgent": 6857,
      "ocy": 6858,
      "Ġretail": 6859,
      "aluable": 6860,
      "ĠGoogle": 6861,
      "Ġpark": 6862,
      "Ġwider": 6863,
      "ultane": 6864,
      "ĠOb": 6865,
      "ĠIntelligence": 6866,
      "iverse": 6867,
      "ionally": 6868,
      "cel": 6869,
      "Ġscar": 6870,
      "Ġampl": 6871,
      "Ġsymptom": 6872,
      "Ġresilient": 6873,
      "Ġclick": 6874,
      "Ġsole": 6875,
      "Ġimplants": 6876,
      "Rec": 6877,
      "ema": 6878,
      "Ġrough": 6879,
      "Ġlasting": 6880,
      "12": 6881,
      "Now": 6882,
      "ara": 6883,
      "ĠRiver": 6884,
      "ĠArch": 6885,
      "iques": 6886,
      "Ġspecifications": 6887,
      "Ġhighlights": 6888,
      "Ġdirt": 6889,
      "Ġtack": 6890,
      "Ġunex": 6891,
      "Ġcommitted": 6892,
      "ĠDisease": 6893,
      "orr": 6894,
      "Ġconnecting": 6895,
      "Ġphotos": 6896,
      "ĠSometimes": 6897,
      "dominal": 6898,
      "Ġthickness": 6899,
      "Ġlig": 6900,
      "Ġperception": 6901,
      "Ġcameras": 6902,
      "ĠAssess": 6903,
      "Ġexhibit": 6904,
      "Ġdespite": 6905,
      "Ġanest": 6906,
      "cessary": 6907,
      "Ġswimming": 6908,
      "Ġsuperior": 6909,
      "Ġcodes": 6910,
      "ĠRead": 6911,
      "Ġconvert": 6912,
      "Ġdies": 6913,
      "ĠNon": 6914,
      "Ġmagnesium": 6915,
      "orses": 6916,
      "Ġarg": 6917,
      "Ġwoman": 6918,
      "ether": 6919,
      "olars": 6920,
      "Aut": 6921,
      "ico": 6922,
      "Ġstations": 6923,
      "Ġengaged": 6924,
      "Ġfertilizer": 6925,
      "front": 6926,
      "Ġexplan": 6927,
      "Ġaerospace": 6928,
      "ipation": 6929,
      "Ġprecautions": 6930,
      "FT": 6931,
      "iforn": 6932,
      "Ġautonomous": 6933,
      "Ġalignment": 6934,
      "Ġsheets": 6935,
      "ĠIsl": 6936,
      "lementing": 6937,
      "Ġdream": 6938,
      "Ġcomposed": 6939,
      "Ġcure": 6940,
      "Ġden": 6941,
      "Ġcarp": 6942,
      "ĠEnsure": 6943,
      "Ġherbs": 6944,
      "Ġexistence": 6945,
      "Ne": 6946,
      "Ġking": 6947,
      "Ġworry": 6948,
      "Ġeliminating": 6949,
      "Ġpregnant": 6950,
      "Ġmeters": 6951,
      "Ġmathematics": 6952,
      "Ġgaining": 6953,
      "Ġdangers": 6954,
      "IV": 6955,
      "Ġcough": 6956,
      "Ġbeam": 6957,
      "Ġfold": 6958,
      "Ġfilling": 6959,
      "Ġcontributions": 6960,
      "eners": 6961,
      "Ġmaintained": 6962,
      "Ġheavily": 6963,
      "ester": 6964,
      "Ġagent": 6965,
      "Ġrail": 6966,
      "Ġinver": 6967,
      "Ġsurpr": 6968,
      "Ġentering": 6969,
      "Ġkeeps": 6970,
      "Ġnames": 6971,
      "Ġwashing": 6972,
      "Ġvisually": 6973,
      "Ġconfident": 6974,
      "mbra": 6975,
      "Water": 6976,
      "ĠVari": 6977,
      "hand": 6978,
      "idth": 6979,
      "eping": 6980,
      "Ġcalls": 6981,
      "umps": 6982,
      "Ġwaters": 6983,
      "Ġrect": 6984,
      "kelet": 6985,
      "ipline": 6986,
      "ĠFam": 6987,
      "Ġpartial": 6988,
      "ĠUt": 6989,
      "idential": 6990,
      "Ġpotassium": 6991,
      "Ġindicates": 6992,
      "Ġjewelry": 6993,
      "Ġfly": 6994,
      "acts": 6995,
      "Ġcertification": 6996,
      "Ġindex": 6997,
      "ĠUnder": 6998,
      "Ġcircular": 6999,
      "ĠGro": 7000,
      "Ġprotot": 7001,
      "ĠQuest": 7002,
      "ilage": 7003,
      "Ġvill": 7004,
      "Ġimpair": 7005,
      "Ġstrengths": 7006,
      "Ġlogistics": 7007,
      "Ġupdated": 7008,
      "Ġappreciate": 7009,
      "Ġdefinition": 7010,
      "ault": 7011,
      "isdom": 7012,
      "ashes": 7013,
      "gressive": 7014,
      "Ġreproductive": 7015,
      "Ġstainless": 7016,
      "orter": 7017,
      "Ġcrafts": 7018,
      "Ġirritation": 7019,
      "Ġaesthe": 7020,
      "sem": 7021,
      "Ġinvaluable": 7022,
      "Ġourselves": 7023,
      "Ġwires": 7024,
      "ĠWest": 7025,
      "Ġrevolutionize": 7026,
      "Ġpromptly": 7027,
      "ĠSupp": 7028,
      "CD": 7029,
      "Ġimpossible": 7030,
      "ĠNatural": 7031,
      "Ġshowed": 7032,
      "ĠKey": 7033,
      "Ġpesticides": 7034,
      "rams": 7035,
      "Ġscope": 7036,
      "Ġkitchen": 7037,
      "Ġbuying": 7038,
      "Ġsteam": 7039,
      "Ġlawn": 7040,
      "AL": 7041,
      "acerb": 7042,
      "Ġretention": 7043,
      "Ġeight": 7044,
      "Ġcongest": 7045,
      "logical": 7046,
      "Ġflows": 7047,
      "Ġutilization": 7048,
      "Ġlymph": 7049,
      "Ġknowing": 7050,
      "ropical": 7051,
      "ĠProduct": 7052,
      "ercise": 7053,
      "Ġauthority": 7054,
      "Ġinventory": 7055,
      "Ġstudied": 7056,
      "Ġrealistic": 7057,
      "Ġloose": 7058,
      "ifornia": 7059,
      "ivities": 7060,
      "Ġscrat": 7061,
      "ĠUp": 7062,
      "Ġregist": 7063,
      "ĠContin": 7064,
      "Ġpil": 7065,
      "icking": 7066,
      "Ġvariable": 7067,
      "kin": 7068,
      "ĠAnaly": 7069,
      "Ġemphasis": 7070,
      "Ġpurchasing": 7071,
      "Ġunderstood": 7072,
      "Ġenamel": 7073,
      "resistant": 7074,
      "Ġbonds": 7075,
      "Ġtele": 7076,
      "och": 7077,
      "ĠBlood": 7078,
      "Ġintegrate": 7079,
      "Ġexacerb": 7080,
      "Ġmag": 7081,
      "alt": 7082,
      "Ġtwice": 7083,
      "ĠBefore": 7084,
      "Ġchannels": 7085,
      "ĠAcc": 7086,
      "Ġshock": 7087,
      "ĠPublic": 7088,
      "Ġsubs": 7089,
      "Ġletters": 7090,
      "Ġtubes": 7091,
      "Ġsin": 7092,
      "ĠBel": 7093,
      "ĠConn": 7094,
      "Ġgaps": 7095,
      "Ġdiarrhea": 7096,
      "Ġda": 7097,
      "Ġreceiving": 7098,
      "men": 7099,
      "Ġcatch": 7100,
      "Ġbrief": 7101,
      "Ġvacuum": 7102,
      "Ġmistakes": 7103,
      "ĠAR": 7104,
      "Ġunne": 7105,
      "Ġlip": 7106,
      "acco": 7107,
      "Ġwatering": 7108,
      "Ġ14": 7109,
      "Ġquantity": 7110,
      "ĠLight": 7111,
      "ĠAsia": 7112,
      "Ġpure": 7113,
      "Ġinh": 7114,
      "Ġdanger": 7115,
      "lined": 7116,
      "Ġbor": 7117,
      "Ġtempl": 7118,
      "ĠTraditional": 7119,
      "ĠDC": 7120,
      "Ġobvious": 7121,
      "Ġmenstru": 7122,
      "Ġcoping": 7123,
      "ĠDoes": 7124,
      "ript": 7125,
      "Ġvaccine": 7126,
      "ĠStrateg": 7127,
      "tra": 7128,
      "Ġvaries": 7129,
      "iva": 7130,
      "Ġassignments": 7131,
      "Ġbol": 7132,
      "ĠDisc": 7133,
      "ĠGood": 7134,
      "Ġextends": 7135,
      "liers": 7136,
      "Ġadministration": 7137,
      "Ġsocietal": 7138,
      "unning": 7139,
      "Ġconnectivity": 7140,
      "uning": 7141,
      "ogens": 7142,
      "Ġpaid": 7143,
      "imp": 7144,
      "Ġgot": 7145,
      "Ġvag": 7146,
      "Ġindicators": 7147,
      "Ġobstacles": 7148,
      "Ġcotton": 7149,
      "Ġbanks": 7150,
      "Ġnations": 7151,
      "osite": 7152,
      "Ġdoll": 7153,
      "ĠInnov": 7154,
      "Ġadaptability": 7155,
      "Ġnearby": 7156,
      "ĠServices": 7157,
      "AP": 7158,
      "Ġmission": 7159,
      "Ġnothing": 7160,
      "Ġtransmitted": 7161,
      "Ġcoup": 7162,
      "Ġmuc": 7163,
      "Ġplayer": 7164,
      "Ġsurroundings": 7165,
      "Ġcoc": 7166,
      "Ġborn": 7167,
      "yme": 7168,
      "Ġneutral": 7169,
      "Man": 7170,
      "Ġwarning": 7171,
      "Ġdrones": 7172,
      "Ġgrap": 7173,
      "gradable": 7174,
      "owers": 7175,
      "Ġencryption": 7176,
      "Ġeast": 7177,
      "Ġcavities": 7178,
      "Ġunauthorized": 7179,
      "Ġrehabilitation": 7180,
      "Ġphysics": 7181,
      "Ġrecognizing": 7182,
      "ĠFore": 7183,
      "ĠLook": 7184,
      "Ġcarrying": 7185,
      "Ġqualified": 7186,
      "Ġodds": 7187,
      "fall": 7188,
      "Ġhosting": 7189,
      "ĠProtection": 7190,
      "Ġcooperation": 7191,
      "Ġdownt": 7192,
      "Ġreaching": 7193,
      "Ġsuc": 7194,
      "Ġclarity": 7195,
      "Ġtaxes": 7196,
      "Ġsew": 7197,
      "Ġsession": 7198,
      "Ġmarked": 7199,
      "Ġgovernance": 7200,
      "Ġremaining": 7201,
      "Ġmicroorganisms": 7202,
      "Ġhighlighting": 7203,
      "lim": 7204,
      "Ġlenses": 7205,
      "Ġlabel": 7206,
      "Ġencompasses": 7207,
      "Ġcompare": 7208,
      "Ġdistract": 7209,
      "Ġmolecular": 7210,
      "Ġpupils": 7211,
      "Ġresist": 7212,
      "Ġspin": 7213,
      "Ġhybrid": 7214,
      "Ġhouses": 7215,
      "eine": 7216,
      "dup": 7217,
      "Ġexams": 7218,
      "Ġfaith": 7219,
      "useum": 7220,
      "Ġframeworks": 7221,
      "Ġtoxins": 7222,
      "ĠHistory": 7223,
      "key": 7224,
      "Ġphosph": 7225,
      "DA": 7226,
      "ĠHis": 7227,
      "Ġdevelops": 7228,
      "Ġvomiting": 7229,
      "PU": 7230,
      "Ġhour": 7231,
      "ĠBre": 7232,
      "ĠFollow": 7233,
      "Ġdegradation": 7234,
      "ĠVe": 7235,
      "Ġfinished": 7236,
      "usions": 7237,
      "Ġsolving": 7238,
      "Ġaccordingly": 7239,
      "Ġreson": 7240,
      "Ġanywhere": 7241,
      "Ġcleaner": 7242,
      "Ġworked": 7243,
      "Ġadds": 7244,
      "Ġpneum": 7245,
      "Ġcomplicated": 7246,
      "Ġdishes": 7247,
      "grade": 7248,
      "ĠService": 7249,
      "Ġtraits": 7250,
      "Ġpractition": 7251,
      "Ġbringing": 7252,
      "tication": 7253,
      "Ġends": 7254,
      "ĠLim": 7255,
      "elfare": 7256,
      "Ġconsistently": 7257,
      "Ġworn": 7258,
      "Ġsimultane": 7259,
      "Ġspeeds": 7260,
      "Ġattend": 7261,
      "Ġliteracy": 7262,
      "Ġpandemic": 7263,
      "ĠHelp": 7264,
      "Ġprevalent": 7265,
      "Or": 7266,
      "Ġconstra": 7267,
      "Ġhear": 7268,
      "Ġflour": 7269,
      "Ġtransformative": 7270,
      "Ab": 7271,
      "ogether": 7272,
      "Ġjoin": 7273,
      "Ġmembrane": 7274,
      "Ġord": 7275,
      "Ġcoal": 7276,
      "Ġcombine": 7277,
      "Ġevaluating": 7278,
      "Ġgastro": 7279,
      "ausea": 7280,
      "Ġphysically": 7281,
      "rot": 7282,
      "oper": 7283,
      "olit": 7284,
      "aired": 7285,
      "asma": 7286,
      "Ġenzym": 7287,
      "Ġcards": 7288,
      "alities": 7289,
      "Ġincident": 7290,
      "rypt": 7291,
      "Ġdimensions": 7292,
      "anium": 7293,
      "Ġstorm": 7294,
      "Ġratio": 7295,
      "see": 7296,
      "Ġtrial": 7297,
      "Ġcollaborate": 7298,
      "Ġprolonged": 7299,
      "ĠEffective": 7300,
      "Ġcoastal": 7301,
      "Ġwilling": 7302,
      "Ġcircuits": 7303,
      "Ġcort": 7304,
      "ĠExpl": 7305,
      "Ġenjoyable": 7306,
      "Ġmanifest": 7307,
      "Ġleaks": 7308,
      "ĠLanguage": 7309,
      "Read": 7310,
      "verty": 7311,
      "ado": 7312,
      "ĠOpen": 7313,
      "Ġpoverty": 7314,
      "Ġintellectual": 7315,
      "Ġdelay": 7316,
      "Ġvulnerabilities": 7317,
      "gged": 7318,
      "ĠCOVID": 7319,
      "ĠPal": 7320,
      "Ġinches": 7321,
      "Ġwash": 7322,
      "Ġpriority": 7323,
      "Ġbiology": 7324,
      "Ġboil": 7325,
      "ĠCat": 7326,
      "Ġcompr": 7327,
      "Ġlandscapes": 7328,
      "Ġacute": 7329,
      "ĠLife": 7330,
      "ishment": 7331,
      "Ġexceptional": 7332,
      "Ġitem": 7333,
      "ameter": 7334,
      "ĠCalifornia": 7335,
      "Ġshoes": 7336,
      "Ġprizes": 7337,
      "Ġpresentation": 7338,
      "Ġwastewater": 7339,
      "Ġcryptocurrencies": 7340,
      "Ġgentle": 7341,
      "rag": 7342,
      "ĠBit": 7343,
      "Ġfilt": 7344,
      "Ġhunting": 7345,
      "rosc": 7346,
      "Ġritual": 7347,
      "ĠEngineering": 7348,
      "Ġputting": 7349,
      "Ġletter": 7350,
      "Dis": 7351,
      "Ġfan": 7352,
      "Ġqualities": 7353,
      "Ġveterinarian": 7354,
      "Ġhen": 7355,
      "ourse": 7356,
      "ĠGreat": 7357,
      "First": 7358,
      "ML": 7359,
      "Med": 7360,
      "Ġtheore": 7361,
      "Ġgal": 7362,
      "Ġchemistry": 7363,
      "Ġ24": 7364,
      "asty": 7365,
      "Ġinterconnected": 7366,
      "apse": 7367,
      "Ġgloves": 7368,
      "Ġdairy": 7369,
      "Ġplates": 7370,
      "ĠBuilding": 7371,
      "sis": 7372,
      "ella": 7373,
      "Ġflight": 7374,
      "Ġharmon": 7375,
      "Health": 7376,
      "Ġcasting": 7377,
      "Ġchicken": 7378,
      "Ġplumbing": 7379,
      "ĠWind": 7380,
      "Ġbite": 7381,
      "Ġgir": 7382,
      "Ġheal": 7383,
      "Ġincent": 7384,
      "Ġimmense": 7385,
      "Ġcrime": 7386,
      "Ġmoderate": 7387,
      "Ġdeeply": 7388,
      "Ġallergy": 7389,
      "Ġtape": 7390,
      "Ġholding": 7391,
      "ython": 7392,
      "ST": 7393,
      "Ġbeans": 7394,
      "Ġthanks": 7395,
      "Ġrecept": 7396,
      "Ġlubric": 7397,
      "imm": 7398,
      "Ġcombustion": 7399,
      "ĠAmericans": 7400,
      "Ġapproximately": 7401,
      "pes": 7402,
      "ĠMa": 7403,
      "Ġproductive": 7404,
      "Ġship": 7405,
      "Ġencouraged": 7406,
      "Ġisolation": 7407,
      "antic": 7408,
      "Ġdecomp": 7409,
      "Ġ11": 7410,
      "ĠJour": 7411,
      "Ġwooden": 7412,
      "Ġcycles": 7413,
      "ora": 7414,
      "ildup": 7415,
      "Ġgenerating": 7416,
      "Ġpassion": 7417,
      "Ġfractures": 7418,
      "ifier": 7419,
      "aint": 7420,
      "ĠCollabor": 7421,
      "Ġregener": 7422,
      "Ġserving": 7423,
      "ĠRev": 7424,
      "Ġsocieties": 7425,
      "ĠLow": 7426,
      "Ġtumor": 7427,
      "aph": 7428,
      "Enh": 7429,
      "Ġrobotics": 7430,
      "Ġfiltration": 7431,
      "Ġtomat": 7432,
      "Ġdiffer": 7433,
      "Ġcarbohydrates": 7434,
      "bone": 7435,
      "Ġstiff": 7436,
      "Ġworksheet": 7437,
      "Ġseparation": 7438,
      "allel": 7439,
      "Ġinclusion": 7440,
      "erce": 7441,
      "ĠRob": 7442,
      "covery": 7443,
      "etary": 7444,
      "Ġdesire": 7445,
      "orporating": 7446,
      "regular": 7447,
      "Ġdil": 7448,
      "iencies": 7449,
      "Ġveins": 7450,
      "Sm": 7451,
      "Ġpit": 7452,
      "Ġgre": 7453,
      "Ġanalys": 7454,
      "Ġlicens": 7455,
      "ĠLong": 7456,
      "Ġowner": 7457,
      "inn": 7458,
      "Ġleverage": 7459,
      "Ġoccurring": 7460,
      "From": 7461,
      "mas": 7462,
      "Ġsong": 7463,
      "Ġfal": 7464,
      "fting": 7465,
      "Ġmir": 7466,
      "Ġears": 7467,
      "Ġcombining": 7468,
      "ĠResp": 7469,
      "anies": 7470,
      "stract": 7471,
      "Ġappreciation": 7472,
      "Ġmamm": 7473,
      "Ġank": 7474,
      "Ġamino": 7475,
      "Ġspecialists": 7476,
      "Ġutility": 7477,
      "DF": 7478,
      "Ġtransformed": 7479,
      "Ġlaun": 7480,
      "ipher": 7481,
      "Ġadapted": 7482,
      "Ġcovering": 7483,
      "Ġtrading": 7484,
      "borne": 7485,
      "su": 7486,
      "Ġprey": 7487,
      "ida": 7488,
      "Ġenforcement": 7489,
      "hydration": 7490,
      "rem": 7491,
      "ĠCy": 7492,
      "Ġprinted": 7493,
      "ĠModern": 7494,
      "Ġcer": 7495,
      "Ġmul": 7496,
      "earchers": 7497,
      "Ġzone": 7498,
      "Ġpull": 7499,
      "Ġdomain": 7500,
      "ĠSmart": 7501,
      "PC": 7502,
      "odies": 7503,
      "seling": 7504,
      "Ġdrilling": 7505,
      "ĠJoh": 7506,
      "Ġdisasters": 7507,
      "Ġbuildup": 7508,
      "Ġul": 7509,
      "Ġtherapist": 7510,
      "Ġcelebrate": 7511,
      "Ġtech": 7512,
      "Ġbias": 7513,
      "phone": 7514,
      "Ġsymbols": 7515,
      "Ġenterpr": 7516,
      "Ġwiring": 7517,
      "Ġshade": 7518,
      "Ġtrace": 7519,
      "Ġaccountability": 7520,
      "LP": 7521,
      "Ġtrials": 7522,
      "IM": 7523,
      "Ġauth": 7524,
      "suring": 7525,
      "orph": 7526,
      "Ġrealize": 7527,
      "Ġquantities": 7528,
      "iary": 7529,
      "Ġsour": 7530,
      "Ġelder": 7531,
      "iber": 7532,
      "Ġclust": 7533,
      "Ġcrack": 7534,
      "control": 7535,
      "Ġbasics": 7536,
      "ĠProgram": 7537,
      "Ġsulf": 7538,
      "ĠTur": 7539,
      "Ġassessing": 7540,
      "Ġkidneys": 7541,
      "ĠMonitoring": 7542,
      "ica": 7543,
      "asant": 7544,
      "oler": 7545,
      "Ġunknown": 7546,
      "Ġinvestigate": 7547,
      "Ġmultif": 7548,
      "Ġexhaust": 7549,
      "Ġpapers": 7550,
      "Ġproposed": 7551,
      "onents": 7552,
      "Ġsight": 7553,
      "cell": 7554,
      "Ġdiscrimination": 7555,
      "adequ": 7556,
      "Ġaudit": 7557,
      "Ġreligion": 7558,
      "ifting": 7559,
      "ĠEfficiency": 7560,
      "ĠMethod": 7561,
      "CT": 7562,
      "Ġposes": 7563,
      "Ġlargely": 7564,
      "van": 7565,
      "ĠSens": 7566,
      "Ġunnecessary": 7567,
      "Ġmusical": 7568,
      "Ġurinary": 7569,
      "Ġfur": 7570,
      "Ġvig": 7571,
      "Ġrestric": 7572,
      "Ġmassive": 7573,
      "Ġsodium": 7574,
      "roc": 7575,
      "ithium": 7576,
      "under": 7577,
      "Ġgenerator": 7578,
      "ayer": 7579,
      "ogue": 7580,
      "ĠLike": 7581,
      "Ġhomeowners": 7582,
      "Ġdrawn": 7583,
      "ĠChristian": 7584,
      "SE": 7585,
      "oke": 7586,
      "Ġinequ": 7587,
      "Ġclay": 7588,
      "Ġblend": 7589,
      "Ġagreements": 7590,
      "iration": 7591,
      "Ġparticipating": 7592,
      "Common": 7593,
      "esides": 7594,
      "ushed": 7595,
      "Ġpromise": 7596,
      "Ġclassified": 7597,
      "Ġslo": 7598,
      "People": 7599,
      "riage": 7600,
      "ographical": 7601,
      "Ġreputation": 7602,
      "Ġaccommodate": 7603,
      "Ġviews": 7604,
      "ĠPort": 7605,
      "Ġdrives": 7606,
      "Ġjuice": 7607,
      "Ġvolunte": 7608,
      "Ġtact": 7609,
      "Ġseven": 7610,
      "Ġabdominal": 7611,
      "Ġconserv": 7612,
      "Ġboards": 7613,
      "ĠSpecial": 7614,
      "ĠOper": 7615,
      "Ġpersonality": 7616,
      "Ġprotects": 7617,
      "Ġentirely": 7618,
      "rine": 7619,
      "Ġbag": 7620,
      "Ġinterview": 7621,
      "hesia": 7622,
      "Ġharder": 7623,
      "Ġflood": 7624,
      "Ġfishing": 7625,
      "ĠEl": 7626,
      "Ġunlike": 7627,
      "Ġpassing": 7628,
      "Ġdocumentation": 7629,
      "Ġelectromagnetic": 7630,
      "ersonal": 7631,
      "loys": 7632,
      "Ġreinfor": 7633,
      "Ġwisdom": 7634,
      "uting": 7635,
      "Ġstoring": 7636,
      "ĠMental": 7637,
      "Ġstreamline": 7638,
      "Ġmere": 7639,
      "Ġunus": 7640,
      "Ġanticip": 7641,
      "Ġsatisf": 7642,
      "Ġpersistent": 7643,
      "Ġlean": 7644,
      "Ġwireless": 7645,
      "Ġfracture": 7646,
      "No": 7647,
      "hous": 7648,
      "Ġanim": 7649,
      "Ġinstalling": 7650,
      "Ġbiggest": 7651,
      "Ġnodes": 7652,
      "ĠDes": 7653,
      "Ġsitting": 7654,
      "ĠDev": 7655,
      "Ġpsychology": 7656,
      "fol": 7657,
      "Ġnasal": 7658,
      "ĠSet": 7659,
      "Ġrol": 7660,
      "Ġturned": 7661,
      "Dr": 7662,
      "Ġfires": 7663,
      "ama": 7664,
      "Ġrecur": 7665,
      "ĠLab": 7666,
      "Ġinstitution": 7667,
      "Ġinspections": 7668,
      "Ġcomplement": 7669,
      "Ġdependent": 7670,
      "ĠSoci": 7671,
      "ĠSoft": 7672,
      "Ġemit": 7673,
      "Ġprofile": 7674,
      "nia": 7675,
      "Ġtruth": 7676,
      "Ġphysician": 7677,
      "ĠCommunication": 7678,
      "HE": 7679,
      "Ġrivers": 7680,
      "ĠProm": 7681,
      "ĠWhy": 7682,
      "Ġarom": 7683,
      "Ġalert": 7684,
      "umber": 7685,
      "Ġsouth": 7686,
      "Ġfle": 7687,
      "ĠVR": 7688,
      "Ġspirit": 7689,
      "Ġfigures": 7690,
      "ius": 7691,
      "la": 7692,
      "Ġasbestos": 7693,
      "ĠSleep": 7694,
      "ĠMot": 7695,
      "Ġuntreated": 7696,
      "Ġnearly": 7697,
      "omic": 7698,
      "Ġchains": 7699,
      "Ġpulp": 7700,
      "ĠBudd": 7701,
      "ĠIncl": 7702,
      "Ġelectroly": 7703,
      "Ġreverse": 7704,
      "ructive": 7705,
      "Ġvisibility": 7706,
      "icul": 7707,
      "ivest": 7708,
      "Through": 7709,
      "Ġrestrictions": 7710,
      "olved": 7711,
      "Ġstruggling": 7712,
      "Ġrepetitive": 7713,
      "Me": 7714,
      "dy": 7715,
      "Ġcoding": 7716,
      "Ġgenerators": 7717,
      "Ġdistances": 7718,
      "Ġzero": 7719,
      "Ġcann": 7720,
      "ĠFree": 7721,
      "iplinary": 7722,
      "Ġcontaminated": 7723,
      "Ġtong": 7724,
      "Ġmas": 7725,
      "Ġham": 7726,
      "Ġdetected": 7727,
      "Ġspreading": 7728,
      "Ġstatistical": 7729,
      "ĠSkills": 7730,
      "Ġpou": 7731,
      "Ġruns": 7732,
      "Ġnursing": 7733,
      "iating": 7734,
      "ĠMal": 7735,
      "ĠRight": 7736,
      "Ġdatabases": 7737,
      "Ġdos": 7738,
      "Ġchapter": 7739,
      "Ġfaces": 7740,
      "Ġautomatic": 7741,
      "iant": 7742,
      "ĠII": 7743,
      "perature": 7744,
      "Ġfluor": 7745,
      "utri": 7746,
      "Ġchat": 7747,
      "rics": 7748,
      "Ġundert": 7749,
      "Ġadopted": 7750,
      "Ġconversations": 7751,
      "Ġaccumulation": 7752,
      "CO": 7753,
      "gent": 7754,
      "ĠRet": 7755,
      "ĠChat": 7756,
      "Ġpredators": 7757,
      "Ġcope": 7758,
      "Ġ40": 7759,
      "Ġcategory": 7760,
      "Ġtables": 7761,
      "Ġmeant": 7762,
      "Ġneedle": 7763,
      "rowth": 7764,
      "Ġcompassion": 7765,
      "ĠGet": 7766,
      "Ġnutrit": 7767,
      "Ġcustomized": 7768,
      "Ġannual": 7769,
      "Ġsequence": 7770,
      "Ġunexpected": 7771,
      "herence": 7772,
      "onia": 7773,
      "Ġwish": 7774,
      "Ġjoy": 7775,
      "fulness": 7776,
      "Ġprogression": 7777,
      "Ġplacing": 7778,
      "Ġcaff": 7779,
      "Ġfailures": 7780,
      "Ġplacement": 7781,
      "ĠHyd": 7782,
      "aceted": 7783,
      "onym": 7784,
      "Ġspent": 7785,
      "ĠSun": 7786,
      "azing": 7787,
      "Ġhospitals": 7788,
      "Ġcampaigns": 7789,
      "Ġenthusiasts": 7790,
      "ĠForm": 7791,
      "aret": 7792,
      "Ġ25": 7793,
      "Ġcharacteristic": 7794,
      "Ġstatistics": 7795,
      "Ġenzymes": 7796,
      "Ġmand": 7797,
      "Ġorient": 7798,
      "Ġvegetable": 7799,
      "Ġmetabolic": 7800,
      "Ġclothes": 7801,
      "Ġworkshops": 7802,
      "ĠSign": 7803,
      "ĠCT": 7804,
      "anged": 7805,
      "Ġaggressive": 7806,
      "Ġauto": 7807,
      "Ġmindset": 7808,
      "Ġassignment": 7809,
      "Ġapnea": 7810,
      "perm": 7811,
      "ermat": 7812,
      "Ġgramm": 7813,
      "Ġultrasound": 7814,
      "Ġincidents": 7815,
      "Ġgrinding": 7816,
      "Ġdamp": 7817,
      "Ġalgorithm": 7818,
      "fish": 7819,
      "ĠRuss": 7820,
      "def": 7821,
      "Ġ2023": 7822,
      "Ġwants": 7823,
      "ĠThose": 7824,
      "Ġentrepreneurs": 7825,
      "ivestock": 7826,
      "arium": 7827,
      "dep": 7828,
      "ablish": 7829,
      "opes": 7830,
      "Ġscene": 7831,
      "ief": 7832,
      "forest": 7833,
      "Ġorganiz": 7834,
      "Ġglasses": 7835,
      "Ġimmersive": 7836,
      "comp": 7837,
      "Ġhorses": 7838,
      "osa": 7839,
      "Ġscrap": 7840,
      "Ġorigins": 7841,
      "Ġcongestion": 7842,
      "itives": 7843,
      "Ġrelies": 7844,
      "nger": 7845,
      "Ġalt": 7846,
      "Ġoverloo": 7847,
      "Ġbugs": 7848,
      "worth": 7849,
      "Ġappealing": 7850,
      "ushes": 7851,
      "ĠGard": 7852,
      "Ġassum": 7853,
      "ffects": 7854,
      "Ġpercentage": 7855,
      "Ġbranch": 7856,
      "produ": 7857,
      "irms": 7858,
      "ĠUlt": 7859,
      "Ġlifting": 7860,
      "ĠTechniques": 7861,
      "bow": 7862,
      "itudes": 7863,
      "Ġded": 7864,
      "agen": 7865,
      "Ġrising": 7866,
      "Ġwelfare": 7867,
      "terior": 7868,
      "Ġdish": 7869,
      "Ġsoap": 7870,
      "Ġpeak": 7871,
      "Ġvisits": 7872,
      "iciency": 7873,
      "Ġshorter": 7874,
      "ĠHand": 7875,
      "Ġoutbre": 7876,
      "Ġsleeping": 7877,
      "Ġtanks": 7878,
      "isher": 7879,
      "Ġguard": 7880,
      "Ġroutes": 7881,
      "ĠGerman": 7882,
      "aments": 7883,
      "Ġcab": 7884,
      "Ġdistinctive": 7885,
      "Ġfluctuations": 7886,
      "Ġteen": 7887,
      "ĠRisk": 7888,
      "Ġtourism": 7889,
      "Ġvs": 7890,
      "ĠMind": 7891,
      "Ġsubt": 7892,
      "Ġdisadvantages": 7893,
      "lings": 7894,
      "urop": 7895,
      "Ġpond": 7896,
      "Ġconj": 7897,
      "lesh": 7898,
      "Ġturns": 7899,
      "Ġadjusting": 7900,
      "Ġdivision": 7901,
      "ĠCommunity": 7902,
      "Ġpotat": 7903,
      "Ġestate": 7904,
      "Ġhappiness": 7905,
      "Ġinvolvement": 7906,
      "Ġtob": 7907,
      "Ġnorth": 7908,
      "abetic": 7909,
      "Ġrust": 7910,
      "Ġdetecting": 7911,
      "acies": 7912,
      "ok": 7913,
      "Ġresolve": 7914,
      "Ġmodule": 7915,
      "pring": 7916,
      "Ġcollecting": 7917,
      "Ġexcav": 7918,
      "estri": 7919,
      "ĠEth": 7920,
      "ressed": 7921,
      "anger": 7922,
      "obic": 7923,
      "Ġstreet": 7924,
      "Ġdebate": 7925,
      "Ġlosing": 7926,
      "Ġrequirement": 7927,
      "ĠPractice": 7928,
      "estion": 7929,
      "Ġweap": 7930,
      "Ġperhaps": 7931,
      "Ġtemple": 7932,
      "hered": 7933,
      "road": 7934,
      "Ġperm": 7935,
      "Ġsatellite": 7936,
      "SA": 7937,
      "tein": 7938,
      "Ġchecks": 7939,
      "Ġ21": 7940,
      "Ġtobacco": 7941,
      "Ġbike": 7942,
      "Ġpredictive": 7943,
      "Ġcracks": 7944,
      "Ġlisten": 7945,
      "Ġunderground": 7946,
      "Ġdense": 7947,
      "ĠTry": 7948,
      "Ġirregular": 7949,
      "Ġnutritious": 7950,
      "Ġquiet": 7951,
      "ĠDepending": 7952,
      "VAC": 7953,
      "Ġinhab": 7954,
      "olute": 7955,
      "ĠMount": 7956,
      "ĠFound": 7957,
      "inders": 7958,
      "Ġparallel": 7959,
      "Ġfabrics": 7960,
      "Ac": 7961,
      "Ġequally": 7962,
      "ĠLevel": 7963,
      "Ġbowel": 7964,
      "RE": 7965,
      "Ġuniverse": 7966,
      "acement": 7967,
      "Ġemergencies": 7968,
      "Di": 7969,
      "Ġwel": 7970,
      "Ġfav": 7971,
      "berries": 7972,
      "ceptions": 7973,
      "Ġfalling": 7974,
      "Ġsilver": 7975,
      "ca": 7976,
      "eem": 7977,
      "Ġille": 7978,
      "otes": 7979,
      "Ġsmile": 7980,
      "Ġprominent": 7981,
      "Ġhypot": 7982,
      "Ġadvisable": 7983,
      "mber": 7984,
      "ĠWestern": 7985,
      "Ġsuppliers": 7986,
      "Ġembed": 7987,
      "vis": 7988,
      "Ġink": 7989,
      "Ġlandf": 7990,
      "Ġsafeguarding": 7991,
      "Ġcomplexities": 7992,
      "Ġpredictions": 7993,
      "Ġnausea": 7994,
      "Ġresin": 7995,
      "Ġtrip": 7996,
      "Ġfertilizers": 7997,
      "Treatment": 7998,
      "Ġcerv": 7999,
      "Ġbills": 8000,
      "section": 8001,
      "ĠFort": 8002,
      "orders": 8003,
      "Ġdepart": 8004,
      "Ġic": 8005,
      "encing": 8006,
      "ogenic": 8007,
      "Ġhundreds": 8008,
      "Ġdro": 8009,
      "ivered": 8010,
      "Ġpathogens": 8011,
      "Ġmoved": 8012,
      "Ġvaccines": 8013,
      "Ġforced": 8014,
      "ĠRad": 8015,
      "Ġheard": 8016,
      "Ġdoub": 8017,
      "Ġprospect": 8018,
      "ĠFire": 8019,
      "Ġrocks": 8020,
      "Ġsquare": 8021,
      "Ġaquatic": 8022,
      "aft": 8023,
      "hist": 8024,
      "Ġrecre": 8025,
      "Since": 8026,
      "made": 8027,
      "Ġtone": 8028,
      "etry": 8029,
      "uded": 8030,
      "Ġreliance": 8031,
      "Ġzinc": 8032,
      "Ġdance": 8033,
      "umer": 8034,
      "Ġintr": 8035,
      "Ġscales": 8036,
      "Ġcomparison": 8037,
      "anish": 8038,
      "Ġenrich": 8039,
      "Ġarc": 8040,
      "Ġcertainly": 8041,
      "Ġzones": 8042,
      "Ġemphasizes": 8043,
      "Ġwax": 8044,
      "Ġdates": 8045,
      "ĠContact": 8046,
      "Ġtargets": 8047,
      "shaped": 8048,
      "Ġexpanding": 8049,
      "lining": 8050,
      "Ġvaried": 8051,
      "Ġmarg": 8052,
      "flu": 8053,
      "ky": 8054,
      "Ġfacial": 8055,
      "ylene": 8056,
      "ĠAgricult": 8057,
      "Ġpursue": 8058,
      "ĠSimilarly": 8059,
      "ĠCentral": 8060,
      "Ġconstructed": 8061,
      "Ġsurgeon": 8062,
      "Ġroute": 8063,
      "Ġcouple": 8064,
      "ĠBr": 8065,
      "ĠDiet": 8066,
      "Ġefficacy": 8067,
      "ĠGeneral": 8068,
      "Ġescape": 8069,
      "Ġsimultaneously": 8070,
      "ĠEst": 8071,
      "Ġlibrary": 8072,
      "Ġinstances": 8073,
      "30": 8074,
      "Ġuter": 8075,
      "Ġabsence": 8076,
      "Ġverte": 8077,
      "Ġargue": 8078,
      "Ġhence": 8079,
      "ĠPsych": 8080,
      "Ġmodifications": 8081,
      "Ġinherent": 8082,
      "Ġblade": 8083,
      "Ġbabies": 8084,
      "piece": 8085,
      "Ġsucceed": 8086,
      "Ġcycling": 8087,
      "Ġrevolutionizing": 8088,
      "Ġboxes": 8089,
      "RP": 8090,
      "itate": 8091,
      "estinal": 8092,
      "Ġschedul": 8093,
      "uccess": 8094,
      "ĠExamples": 8095,
      "Ġcylinder": 8096,
      "olding": 8097,
      "Ġbiode": 8098,
      "ĠPrint": 8099,
      "Ġtheories": 8100,
      "Ġdiscipline": 8101,
      "ĠHealthcare": 8102,
      "Ġpayments": 8103,
      "Ġreinforcement": 8104,
      "ĠElectric": 8105,
      "Ġdiameter": 8106,
      "Ġdelivered": 8107,
      "Ġrod": 8108,
      "Ġ--": 8109,
      "Ġtranslation": 8110,
      "Ġchannel": 8111,
      "through": 8112,
      "redict": 8113,
      "Ġherbal": 8114,
      "Redu": 8115,
      "Ġconv": 8116,
      "Ġclassification": 8117,
      "imensional": 8118,
      "High": 8119,
      "Ġnotable": 8120,
      "Ġnegot": 8121,
      "Ġwait": 8122,
      "aj": 8123,
      "Ġexplos": 8124,
      "Ġalongside": 8125,
      "Ġfarms": 8126,
      "Ġclaims": 8127,
      "arms": 8128,
      "Ġretrie": 8129,
      "Ġdeterior": 8130,
      "ĠBehavior": 8131,
      "Ġdemonstrated": 8132,
      "df": 8133,
      "fit": 8134,
      "otional": 8135,
      "ĠDel": 8136,
      "such": 8137,
      "ĠGlobal": 8138,
      "Ġmountain": 8139,
      "Ġtongue": 8140,
      "Ġforget": 8141,
      "Ġcomply": 8142,
      "Ġcellular": 8143,
      "Vs": 8144,
      "Ġcombines": 8145,
      "ĠIndividuals": 8146,
      "Ġtumors": 8147,
      "ĠEmploy": 8148,
      "Ġshelter": 8149,
      "Ġdatasets": 8150,
      "Ġtang": 8151,
      "ĠFinancial": 8152,
      "Ġsays": 8153,
      "uding": 8154,
      "Ġsubsequent": 8155,
      "telling": 8156,
      "Ġgrain": 8157,
      "Ġinvestigation": 8158,
      "Ġsoils": 8159,
      "Ġadaptation": 8160,
      "Ġportable": 8161,
      "Ġfacilitates": 8162,
      "ompliance": 8163,
      "Ġcondens": 8164,
      "Symptoms": 8165,
      "Ġedges": 8166,
      "Ġinflation": 8167,
      "Ġreturns": 8168,
      "Ġconstraints": 8169,
      "Ġcup": 8170,
      "ulatory": 8171,
      "Ġrooms": 8172,
      "Mod": 8173,
      "OC": 8174,
      "Ġyounger": 8175,
      "Ġstretch": 8176,
      "ĠTesting": 8177,
      "healthy": 8178,
      "Ġprescription": 8179,
      "kal": 8180,
      "Ġune": 8181,
      "amboo": 8182,
      "Ġfoam": 8183,
      "Ġcaffeine": 8184,
      "ulpt": 8185,
      "iest": 8186,
      "Ġworkforce": 8187,
      "Ġbattle": 8188,
      "Ġreflects": 8189,
      "Ġdelivering": 8190,
      "Ġcorporate": 8191
    },
    "merges": [
      [
        "Ġ",
        "t"
      ],
      [
        "Ġ",
        "a"
      ],
      [
        "i",
        "n"
      ],
      [
        "h",
        "e"
      ],
      [
        "r",
        "e"
      ],
      [
        "o",
        "n"
      ],
      [
        "e",
        "r"
      ],
      [
        "a",
        "t"
      ],
      [
        "Ġ",
        "c"
      ],
      [
        "Ġt",
        "he"
      ],
      [
        "Ġ",
        "s"
      ],
      [
        "e",
        "n"
      ],
      [
        "Ġ",
        "o"
      ],
      [
        "e",
        "s"
      ],
      [
        "n",
        "d"
      ],
      [
        "in",
        "g"
      ],
      [
        "a",
        "l"
      ],
      [
        "Ġ",
        "p"
      ],
      [
        "i",
        "t"
      ],
      [
        "i",
        "s"
      ],
      [
        "o",
        "r"
      ],
      [
        "a",
        "n"
      ],
      [
        "Ġa",
        "nd"
      ],
      [
        "Ġ",
        "w"
      ],
      [
        "Ġ",
        "f"
      ],
      [
        "Ġ",
        "in"
      ],
      [
        "Ġ",
        "b"
      ],
      [
        "Ġ",
        "m"
      ],
      [
        "i",
        "on"
      ],
      [
        "i",
        "c"
      ],
      [
        "Ġo",
        "f"
      ],
      [
        "Ġt",
        "o"
      ],
      [
        "r",
        "o"
      ],
      [
        "e",
        "d"
      ],
      [
        "Ġ",
        "d"
      ],
      [
        "a",
        "r"
      ],
      [
        "l",
        "e"
      ],
      [
        "o",
        "u"
      ],
      [
        "en",
        "t"
      ],
      [
        "c",
        "t"
      ],
      [
        "Ġ",
        "e"
      ],
      [
        "s",
        "t"
      ],
      [
        "Ġ",
        "re"
      ],
      [
        "v",
        "e"
      ],
      [
        "o",
        "m"
      ],
      [
        "i",
        "l"
      ],
      [
        "Ġ",
        "h"
      ],
      [
        "Ġt",
        "h"
      ],
      [
        "a",
        "s"
      ],
      [
        "Ġ",
        "is"
      ],
      [
        "at",
        "ion"
      ],
      [
        "Ġ",
        "l"
      ],
      [
        "e",
        "t"
      ],
      [
        "l",
        "y"
      ],
      [
        "Ġ",
        "n"
      ],
      [
        "i",
        "m"
      ],
      [
        "u",
        "s"
      ],
      [
        "c",
        "e"
      ],
      [
        "o",
        "l"
      ],
      [
        "i",
        "d"
      ],
      [
        "u",
        "r"
      ],
      [
        "Ġp",
        "ro"
      ],
      [
        "Ġ",
        "T"
      ],
      [
        "c",
        "h"
      ],
      [
        "Ġ",
        "g"
      ],
      [
        "r",
        "a"
      ],
      [
        "i",
        "g"
      ],
      [
        "Ġf",
        "or"
      ],
      [
        "Ġb",
        "e"
      ],
      [
        "o",
        "t"
      ],
      [
        "u",
        "t"
      ],
      [
        "Ġ",
        "y"
      ],
      [
        "o",
        "w"
      ],
      [
        "Ġs",
        "t"
      ],
      [
        "Ġc",
        "on"
      ],
      [
        "u",
        "l"
      ],
      [
        "i",
        "r"
      ],
      [
        "Ġa",
        "re"
      ],
      [
        "Ġy",
        "ou"
      ],
      [
        "m",
        "ent"
      ],
      [
        "Ġc",
        "an"
      ],
      [
        "s",
        "e"
      ],
      [
        "es",
        "s"
      ],
      [
        "Ġth",
        "at"
      ],
      [
        "v",
        "er"
      ],
      [
        "i",
        "f"
      ],
      [
        "Ġa",
        "s"
      ],
      [
        "it",
        "h"
      ],
      [
        "Ġo",
        "r"
      ],
      [
        "Ġ",
        "on"
      ],
      [
        "a",
        "b"
      ],
      [
        "e",
        "l"
      ],
      [
        "a",
        "y"
      ],
      [
        "e",
        "ct"
      ],
      [
        "Ġw",
        "ith"
      ],
      [
        "u",
        "re"
      ],
      [
        "Ġa",
        "l"
      ],
      [
        "Ġ",
        "he"
      ],
      [
        "o",
        "d"
      ],
      [
        "i",
        "es"
      ],
      [
        "er",
        "s"
      ],
      [
        "it",
        "y"
      ],
      [
        "Ġa",
        "n"
      ],
      [
        "Ġc",
        "om"
      ],
      [
        "g",
        "e"
      ],
      [
        "i",
        "al"
      ],
      [
        "Ġs",
        "u"
      ],
      [
        "Ġ",
        "I"
      ],
      [
        "Ġ",
        "en"
      ],
      [
        "Ġ",
        "it"
      ],
      [
        "i",
        "ve"
      ],
      [
        "at",
        "e"
      ],
      [
        "Ġ",
        "A"
      ],
      [
        "a",
        "m"
      ],
      [
        "Ġe",
        "x"
      ],
      [
        "ĠT",
        "he"
      ],
      [
        "a",
        "in"
      ],
      [
        "Ġd",
        "e"
      ],
      [
        "q",
        "u"
      ],
      [
        "u",
        "n"
      ],
      [
        "Ġ",
        "v"
      ],
      [
        "t",
        "h"
      ],
      [
        "Ġ",
        "us"
      ],
      [
        "an",
        "t"
      ],
      [
        "p",
        "p"
      ],
      [
        "t",
        "er"
      ],
      [
        "he",
        "r"
      ],
      [
        "a",
        "d"
      ],
      [
        "l",
        "o"
      ],
      [
        "Ġ",
        "S"
      ],
      [
        "i",
        "v"
      ],
      [
        "d",
        "u"
      ],
      [
        "Ġw",
        "h"
      ],
      [
        "k",
        "e"
      ],
      [
        "Ġ",
        "C"
      ],
      [
        "Ġ",
        "im"
      ],
      [
        "or",
        "t"
      ],
      [
        "is",
        "t"
      ],
      [
        "o",
        "re"
      ],
      [
        "il",
        "l"
      ],
      [
        "u",
        "m"
      ],
      [
        "a",
        "c"
      ],
      [
        "ic",
        "al"
      ],
      [
        "Ġc",
        "h"
      ],
      [
        "Ġh",
        "a"
      ],
      [
        "es",
        "t"
      ],
      [
        "ig",
        "h"
      ],
      [
        "e",
        "m"
      ],
      [
        "Ġ",
        "le"
      ],
      [
        "o",
        "s"
      ],
      [
        "Ġyou",
        "r"
      ],
      [
        "re",
        "s"
      ],
      [
        "f",
        "f"
      ],
      [
        "a",
        "ct"
      ],
      [
        "u",
        "d"
      ],
      [
        "p",
        "t"
      ],
      [
        "ion",
        "s"
      ],
      [
        "p",
        "er"
      ],
      [
        "en",
        "d"
      ],
      [
        "i",
        "z"
      ],
      [
        "Ġn",
        "e"
      ],
      [
        "Ġim",
        "p"
      ],
      [
        "re",
        "n"
      ],
      [
        "ro",
        "m"
      ],
      [
        "Ġ",
        "r"
      ],
      [
        "p",
        "e"
      ],
      [
        "Ġs",
        "e"
      ],
      [
        "t",
        "e"
      ],
      [
        "Ġp",
        "l"
      ],
      [
        "o",
        "c"
      ],
      [
        "o",
        "g"
      ],
      [
        "Ġthe",
        "ir"
      ],
      [
        "i",
        "b"
      ],
      [
        "Ġa",
        "d"
      ],
      [
        "Ġcom",
        "p"
      ],
      [
        "a",
        "nd"
      ],
      [
        "Ġ",
        "P"
      ],
      [
        "ation",
        "s"
      ],
      [
        "an",
        "ce"
      ],
      [
        "Ġw",
        "e"
      ],
      [
        "Ġb",
        "y"
      ],
      [
        "Ġin",
        "c"
      ],
      [
        "a",
        "ge"
      ],
      [
        "r",
        "u"
      ],
      [
        "ar",
        "t"
      ],
      [
        "ab",
        "le"
      ],
      [
        "Ġm",
        "a"
      ],
      [
        "Ġs",
        "h"
      ],
      [
        "c",
        "ess"
      ],
      [
        "al",
        "l"
      ],
      [
        "Ġf",
        "rom"
      ],
      [
        "id",
        "e"
      ],
      [
        "Ġ",
        "B"
      ],
      [
        "Ġha",
        "ve"
      ],
      [
        "l",
        "d"
      ],
      [
        "Ġcon",
        "t"
      ],
      [
        "Ġt",
        "e"
      ],
      [
        "Ġ",
        "M"
      ],
      [
        "igh",
        "t"
      ],
      [
        "u",
        "nd"
      ],
      [
        "in",
        "e"
      ],
      [
        "or",
        "m"
      ],
      [
        "t",
        "her"
      ],
      [
        "re",
        "at"
      ],
      [
        "ul",
        "t"
      ],
      [
        "o",
        "st"
      ],
      [
        "s",
        "o"
      ],
      [
        "Ġre",
        "s"
      ],
      [
        "i",
        "p"
      ],
      [
        "ig",
        "n"
      ],
      [
        "ĠT",
        "h"
      ],
      [
        "Ġw",
        "or"
      ],
      [
        "om",
        "e"
      ],
      [
        "Ġc",
        "a"
      ],
      [
        "Ġ",
        "W"
      ],
      [
        "Ġa",
        "t"
      ],
      [
        "at",
        "er"
      ],
      [
        "o",
        "p"
      ],
      [
        "k",
        "ing"
      ],
      [
        "Ġn",
        "ot"
      ],
      [
        "ou",
        "s"
      ],
      [
        "Ġ",
        "E"
      ],
      [
        "Ġal",
        "so"
      ],
      [
        "a",
        "g"
      ],
      [
        "Ġm",
        "an"
      ],
      [
        "Ġa",
        "b"
      ],
      [
        "ou",
        "r"
      ],
      [
        "Ġa",
        "c"
      ],
      [
        "T",
        "he"
      ],
      [
        "Ġd",
        "is"
      ],
      [
        "ar",
        "d"
      ],
      [
        "el",
        "l"
      ],
      [
        "Ġ",
        "D"
      ],
      [
        "Ġ",
        "H"
      ],
      [
        "an",
        "s"
      ],
      [
        "ic",
        "h"
      ],
      [
        "Ġth",
        "is"
      ],
      [
        "u",
        "al"
      ],
      [
        "Ġs",
        "y"
      ],
      [
        "re",
        "d"
      ],
      [
        "Ġin",
        "t"
      ],
      [
        "Ġ",
        "F"
      ],
      [
        "Ġw",
        "ill"
      ],
      [
        "a",
        "st"
      ],
      [
        "he",
        "n"
      ],
      [
        "it",
        "ion"
      ],
      [
        "ĠTh",
        "is"
      ],
      [
        "k",
        "s"
      ],
      [
        "g",
        "h"
      ],
      [
        "al",
        "th"
      ],
      [
        "x",
        "t"
      ],
      [
        "Ġm",
        "ore"
      ],
      [
        "l",
        "ow"
      ],
      [
        "ct",
        "ion"
      ],
      [
        "Ġa",
        "pp"
      ],
      [
        "ent",
        "s"
      ],
      [
        "o",
        "f"
      ],
      [
        "Ġhe",
        "l"
      ],
      [
        "f",
        "orm"
      ],
      [
        "c",
        "es"
      ],
      [
        "Ġhel",
        "p"
      ],
      [
        "'",
        "s"
      ],
      [
        "at",
        "ed"
      ],
      [
        "Ġ",
        "R"
      ],
      [
        "Ġe",
        "ff"
      ],
      [
        "res",
        "s"
      ],
      [
        "Ġwh",
        "ich"
      ],
      [
        "Ġthe",
        "y"
      ],
      [
        "u",
        "st"
      ],
      [
        "Ġ",
        "ro"
      ],
      [
        "or",
        "s"
      ],
      [
        "ĠI",
        "n"
      ],
      [
        "ou",
        "t"
      ],
      [
        "if",
        "ic"
      ],
      [
        "en",
        "ce"
      ],
      [
        "f",
        "e"
      ],
      [
        "Ġp",
        "re"
      ],
      [
        "Ġhe",
        "alth"
      ],
      [
        "Ġm",
        "ay"
      ],
      [
        "Ġo",
        "ther"
      ],
      [
        "o",
        "od"
      ],
      [
        "ou",
        "ld"
      ],
      [
        "Ġsu",
        "ch"
      ],
      [
        "e",
        "p"
      ],
      [
        "u",
        "p"
      ],
      [
        "r",
        "i"
      ],
      [
        "il",
        "ity"
      ],
      [
        "Ġ",
        "k"
      ],
      [
        "Ġh",
        "as"
      ],
      [
        "Ġs",
        "p"
      ],
      [
        "ment",
        "s"
      ],
      [
        "r",
        "y"
      ],
      [
        "Ġcom",
        "m"
      ],
      [
        "st",
        "em"
      ],
      [
        "il",
        "d"
      ],
      [
        "ol",
        "og"
      ],
      [
        "Ġpro",
        "v"
      ],
      [
        "en",
        "s"
      ],
      [
        "it",
        "ies"
      ],
      [
        "on",
        "g"
      ],
      [
        "ĠI",
        "t"
      ],
      [
        "Ġm",
        "e"
      ],
      [
        "Ġt",
        "ra"
      ],
      [
        "ch",
        "n"
      ],
      [
        "Ġ",
        "un"
      ],
      [
        "ar",
        "y"
      ],
      [
        "te",
        "xt"
      ],
      [
        "as",
        "e"
      ],
      [
        "Ġcon",
        "s"
      ],
      [
        "a",
        "ch"
      ],
      [
        "in",
        "d"
      ],
      [
        "c",
        "ial"
      ],
      [
        "Ġd",
        "i"
      ],
      [
        "l",
        "es"
      ],
      [
        "Ġ",
        "("
      ],
      [
        "Ġinc",
        "l"
      ],
      [
        "Ġpro",
        "du"
      ],
      [
        "ren",
        "t"
      ],
      [
        "l",
        "ic"
      ],
      [
        "a",
        "ce"
      ],
      [
        "r",
        "ic"
      ],
      [
        "Ġs",
        "pe"
      ],
      [
        "Ġ",
        "L"
      ],
      [
        "i",
        "le"
      ],
      [
        "Ġp",
        "art"
      ],
      [
        "a",
        "v"
      ],
      [
        "at",
        "ing"
      ],
      [
        "Ġp",
        "er"
      ],
      [
        "Ġthe",
        "se"
      ],
      [
        "Ġ",
        "O"
      ],
      [
        "ve",
        "lo"
      ],
      [
        "im",
        "e"
      ],
      [
        "Ġa",
        "r"
      ],
      [
        "<",
        "|"
      ],
      [
        "|",
        ">"
      ],
      [
        "end",
        "of"
      ],
      [
        "endof",
        "text"
      ],
      [
        "Ġsy",
        "stem"
      ],
      [
        "Ġne",
        "ed"
      ],
      [
        "Ġincl",
        "ud"
      ],
      [
        "Ġus",
        "e"
      ],
      [
        "Ġex",
        "p"
      ],
      [
        "Ġe",
        "m"
      ],
      [
        "ent",
        "ial"
      ],
      [
        "velo",
        "p"
      ],
      [
        "ar",
        "i"
      ],
      [
        "Ġt",
        "r"
      ],
      [
        "Ġus",
        "ed"
      ],
      [
        "ur",
        "ing"
      ],
      [
        "Ġthe",
        "m"
      ],
      [
        "Ġ",
        "qu"
      ],
      [
        "Ġd",
        "if"
      ],
      [
        "Ġte",
        "chn"
      ],
      [
        "u",
        "e"
      ],
      [
        "d",
        "ition"
      ],
      [
        "le",
        "ct"
      ],
      [
        "n",
        "t"
      ],
      [
        "Ġs",
        "c"
      ],
      [
        "i",
        "e"
      ],
      [
        "Ġ",
        "und"
      ],
      [
        "on",
        "e"
      ],
      [
        "Ġd",
        "o"
      ],
      [
        "Ġe",
        "v"
      ],
      [
        "er",
        "g"
      ],
      [
        "Ġf",
        "e"
      ],
      [
        "Ġ",
        "j"
      ],
      [
        "ul",
        "ar"
      ],
      [
        "ar",
        "n"
      ],
      [
        "u",
        "gh"
      ],
      [
        "a",
        "re"
      ],
      [
        "m",
        "s"
      ],
      [
        "ic",
        "e"
      ],
      [
        "as",
        "s"
      ],
      [
        "Ġint",
        "o"
      ],
      [
        "Ġde",
        "velop"
      ],
      [
        "Ġ",
        "G"
      ],
      [
        "ure",
        "s"
      ],
      [
        "Ġpro",
        "cess"
      ],
      [
        "Ġin",
        "d"
      ],
      [
        "Ġo",
        "ver"
      ],
      [
        "a",
        "il"
      ],
      [
        "Ġg",
        "ro"
      ],
      [
        "Ġo",
        "ut"
      ],
      [
        "i",
        "ke"
      ],
      [
        "ra",
        "ct"
      ],
      [
        "Ġre",
        "c"
      ],
      [
        "an",
        "g"
      ],
      [
        "Ġb",
        "ut"
      ],
      [
        "ac",
        "k"
      ],
      [
        "y",
        "s"
      ],
      [
        "Ġd",
        "es"
      ],
      [
        "Ġc",
        "l"
      ],
      [
        "us",
        "e"
      ],
      [
        "Ġ",
        "N"
      ],
      [
        "Ġit",
        "s"
      ],
      [
        "ro",
        "ugh"
      ],
      [
        "i",
        "ent"
      ],
      [
        "at",
        "a"
      ],
      [
        "o",
        "se"
      ],
      [
        "ver",
        "y"
      ],
      [
        "Ġund",
        "er"
      ],
      [
        "Ġal",
        "l"
      ],
      [
        "Ġimp",
        "ort"
      ],
      [
        "er",
        "v"
      ],
      [
        "ir",
        "on"
      ],
      [
        "c",
        "ed"
      ],
      [
        "t",
        "ain"
      ],
      [
        "Ġa",
        "ct"
      ],
      [
        "n",
        "ow"
      ],
      [
        "i",
        "re"
      ],
      [
        "Ġst",
        "ud"
      ],
      [
        "Ġc",
        "ol"
      ],
      [
        "Ġin",
        "ter"
      ],
      [
        "ing",
        "s"
      ],
      [
        "Ġ",
        "U"
      ],
      [
        "i",
        "a"
      ],
      [
        "Ġeff",
        "ect"
      ],
      [
        "t",
        "en"
      ],
      [
        "Ġre",
        "l"
      ],
      [
        "it",
        "s"
      ],
      [
        "Ġs",
        "o"
      ],
      [
        "Ġv",
        "ari"
      ],
      [
        "Ġp",
        "e"
      ],
      [
        "Ġin",
        "v"
      ],
      [
        "on",
        "s"
      ],
      [
        "al",
        "ly"
      ],
      [
        "Ġsu",
        "pp"
      ],
      [
        "Ġt",
        "ime"
      ],
      [
        "Ġb",
        "et"
      ],
      [
        "Ġt",
        "a"
      ],
      [
        "Ġre",
        "du"
      ],
      [
        "Ġc",
        "o"
      ],
      [
        "v",
        "iron"
      ],
      [
        "ic",
        "es"
      ],
      [
        "Ġre",
        "g"
      ],
      [
        "f",
        "ul"
      ],
      [
        "or",
        "y"
      ],
      [
        "Ġt",
        "y"
      ],
      [
        "Ġtr",
        "ans"
      ],
      [
        "ou",
        "nt"
      ],
      [
        "e",
        "ar"
      ],
      [
        "Ġbe",
        "c"
      ],
      [
        "c",
        "ur"
      ],
      [
        "Ġs",
        "ign"
      ],
      [
        "Ġw",
        "hen"
      ],
      [
        "c",
        "y"
      ],
      [
        "ic",
        "s"
      ],
      [
        "Ġw",
        "ater"
      ],
      [
        "Ġm",
        "et"
      ],
      [
        "n",
        "e"
      ],
      [
        "Ġdif",
        "fe"
      ],
      [
        "r",
        "it"
      ],
      [
        "et",
        "y"
      ],
      [
        "Ġab",
        "out"
      ],
      [
        "Ġin",
        "f"
      ],
      [
        "j",
        "ect"
      ],
      [
        "in",
        "t"
      ],
      [
        "en",
[...]
